{
  "version": "1.0",
  "truncation": null,
  "padding": null,
  "added_tokens": [
    {
      "id": 0,
      "content": "<UNK>",
      "single_word": false,
      "lstrip": false,
      "rstrip": false,
      "normalized": false,
      "special": true
    },
    {
      "id": 1,
      "content": "<SCOPE_IN>",
      "single_word": false,
      "lstrip": false,
      "rstrip": false,
      "normalized": false,
      "special": true
    },
    {
      "id": 2,
      "content": "<SCOPE_OUT>",
      "single_word": false,
      "lstrip": false,
      "rstrip": false,
      "normalized": false,
      "special": true
    }
  ],
  "normalizer": null,
  "pre_tokenizer": {
    "type": "Split",
    "pattern": {
      "String": "(<SCOPE_IN>|<SCOPE_OUT>|\\n)"
    },
    "behavior": "Isolated",
    "invert": false
  },
  "post_processor": null,
  "decoder": {
    "type": "BPEDecoder",
    "suffix": "</w>"
  },
  "model": {
    "type": "BPE",
    "dropout": null,
    "unk_token": "<UNK>",
    "continuing_subword_prefix": null,
    "end_of_word_suffix": null,
    "fuse_unk": false,
    "byte_fallback": false,
    "ignore_merges": false,
    "vocab": {
      "<UNK>": 0,
      "<SCOPE_IN>": 1,
      "<SCOPE_OUT>": 2,
      "\t": 3,
      "\n": 4,
      "\u000b": 5,
      "\f": 6,
      "\r": 7,
      " ": 8,
      "!": 9,
      "\"": 10,
      "#": 11,
      "$": 12,
      "%": 13,
      "&": 14,
      "'": 15,
      "(": 16,
      ")": 17,
      "*": 18,
      "+": 19,
      ",": 20,
      "-": 21,
      ".": 22,
      "/": 23,
      "0": 24,
      "1": 25,
      "2": 26,
      "3": 27,
      "4": 28,
      "5": 29,
      "6": 30,
      "7": 31,
      "8": 32,
      "9": 33,
      ":": 34,
      ";": 35,
      "<": 36,
      "=": 37,
      ">": 38,
      "?": 39,
      "@": 40,
      "A": 41,
      "B": 42,
      "C": 43,
      "D": 44,
      "E": 45,
      "F": 46,
      "G": 47,
      "H": 48,
      "I": 49,
      "J": 50,
      "K": 51,
      "L": 52,
      "M": 53,
      "N": 54,
      "O": 55,
      "P": 56,
      "Q": 57,
      "R": 58,
      "S": 59,
      "T": 60,
      "U": 61,
      "V": 62,
      "W": 63,
      "X": 64,
      "Y": 65,
      "Z": 66,
      "[": 67,
      "\\": 68,
      "]": 69,
      "^": 70,
      "_": 71,
      "`": 72,
      "a": 73,
      "b": 74,
      "c": 75,
      "d": 76,
      "e": 77,
      "f": 78,
      "g": 79,
      "h": 80,
      "i": 81,
      "j": 82,
      "k": 83,
      "l": 84,
      "m": 85,
      "n": 86,
      "o": 87,
      "p": 88,
      "q": 89,
      "r": 90,
      "s": 91,
      "t": 92,
      "u": 93,
      "v": 94,
      "w": 95,
      "x": 96,
      "y": 97,
      "z": 98,
      "{": 99,
      "|": 100,
      "}": 101,
      "~": 102,
      ", ": 103,
      "se": 104,
      "E_": 105,
      "CO": 106,
      "PE_": 107,
      "SCO": 108,
      "SCOPE_": 109,
      "<SCOPE_": 110,
      "in": 111,
      "on": 112,
      "= ": 113,
      "re": 114,
      ")\n": 115,
      "at": 116,
      " = ": 117,
      "er": 118,
      "st": 119,
      "or": 120,
      "de": 121,
      "sel": 122,
      "self": 123,
      "IN": 124,
      ":\n": 125,
      "UT": 126,
      "OUT": 127,
      "IN>": 128,
      "<SCOPE_OUT": 129,
      "en": 130,
      "al": 131,
      ",\n": 132,
      "ar": 133,
      "self.": 134,
      "me": 135,
      "f ": 136,
      "le": 137,
      "as": 138,
      "an": 139,
      "ti": 140,
      "t_": 141,
      "te": 142,
      ": ": 143,
      "ro": 144,
      "ge": 145,
      "ce": 146,
      "):\n": 147,
      "t ": 148,
      "ur": 149,
      "co": 150,
      "lo": 151,
      "ame": 152,
      "s.": 153,
      "pe": 154,
      "fi": 155,
      "ue": 156,
      "th": 157,
      "ch": 158,
      "li": 159,
      "id": 160,
      "t(": 161,
      "ad": 162,
      "ser": 163,
      "mp": 164,
      "ate": 165,
      "s ": 166,
      "si": 167,
      "def ": 168,
      "di": 169,
      "tr": 170,
      "el": 171,
      "if ": 172,
      "con": 173,
      "name": 174,
      "ing": 175,
      "ty": 176,
      "s_": 177,
      "un": 178,
      "tion": 179,
      "d_": 180,
      "for": 181,
      "', ": 182,
      "  ": 183,
      "one": 184,
      "ex": 185,
      "ut": 186,
      "ret": 187,
      "ck": 188,
      "ma": 189,
      "no": 190,
      "urn": 191,
      "res": 192,
      "_p": 193,
      "return": 194,
      "s(": 195,
      "mo": 196,
      "to": 197,
      "ul": 198,
      "um": 199,
      "None": 200,
      "ata": 201,
      "ct": 202,
      "val": 203,
      "la": 204,
      "ra": 205,
      "return ": 206,
      "ter": 207,
      ") ": 208,
      "ati": 209,
      "ri": 210,
      "': ": 211,
      "in ": 212,
      "<SCOPE_OUT>def ": 213,
      "s = ": 214,
      "type": 215,
      "]\n": 216,
      "s\n": 217,
      "('": 218,
      "up": 219,
      "__": 220,
      "d ": 221,
      "ent": 222,
      "00": 223,
      "op": 224,
      "(self": 225,
      "data": 226,
      "??": 227,
      "), ": 228,
      "arg": 229,
      "ation": 230,
      "))\n": 231,
      "\\x": 232,
      "ap": 233,
      "cl": 234,
      "['": 235,
      "test": 236,
      "<SCOPE_IN>p": 237,
      "ol": 238,
      "asser": 239,
      "ath": 240,
      "str": 241,
      "ta": 242,
      "ke": 243,
      "<SCOPE_OUT><SCOPE_OUT>": 244,
      "ver": 245,
      "qu": 246,
      "\", ": 247,
      "',\n": 248,
      "for ": 249,
      "()\n": 250,
      "sh": 251,
      "ne": 252,
      "),\n": 253,
      " in ": 254,
      ", 1": 255,
      "']": 256,
      "pro": 257,
      "vi": 258,
      "ze": 259,
      "', '": 260,
      "== ": 261,
      "sa": 262,
      "ve": 263,
      "0.": 264,
      "')\n": 265,
      "(\"": 266,
      "par": 267,
      "(\n": 268,
      "file": 269,
      "self._": 270,
      "do": 271,
      "po": 272,
      "am": 273,
      "s, ": 274,
      "il": 275,
      "value": 276,
      "s=": 277,
      "imp": 278,
      "+ ": 279,
      "get_": 280,
      "ass\n": 281,
      "ble": 282,
      "Tr": 283,
      "y_": 284,
      "fa": 285,
      "ction": 286,
      "\"\n": 287,
      "not ": 288,
      "<SCOPE_IN>pass\n": 289,
      "sion": 290,
      "del": 291,
      "len": 292,
      "ror": 293,
      "\")\n": 294,
      "impor": 295,
      "sp": 296,
      "\": ": 297,
      "d(": 298,
      "bo": 299,
      "True": 300,
      "\",\n": 301,
      "out": 302,
      "rom": 303,
      "p.": 304,
      "sc": 305,
      "set": 306,
      "ine": 307,
      "import ": 308,
      "mat": 309,
      "from": 310,
      "time": 311,
      "it": 312,
      "e ": 313,
      "clas": 314,
      "is ": 315,
      ").": 316,
      "ob": 317,
      "m.": 318,
      "che": 319,
      "Re": 320,
      "s[": 321,
      "    ": 322,
      "ig": 323,
      "all": 324,
      "pu": 325,
      "er_": 326,
      "ult": 327,
      "path": 328,
      "list": 329,
      "fig": 330,
      "(self, ": 331,
      "alse": 332,
      "_in": 333,
      "fo": 334,
      "key": 335,
      "='": 336,
      "bu": 337,
      "False": 338,
      "is": 339,
      "log": 340,
      " + ": 341,
      "_name": 342,
      "_c": 343,
      "ith": 344,
      "per": 345,
      "In": 346,
      "model": 347,
      "ba": 348,
      "su": 349,
      "--": 350,
      "'\n": 351,
      "t.": 352,
      " == ": 353,
      "_id": 354,
      "else": 355,
      "app": 356,
      "ption": 357,
      "0, ": 358,
      "<SCOPE_IN>return ": 359,
      "que": 360,
      "tex": 361,
      "int": 362,
      "tra": 363,
      "and": 364,
      "': '": 365,
      "col": 366,
      "ance": 367,
      "je": 368,
      "test_": 369,
      "he": 370,
      "s)\n": 371,
      "np.": 372,
      "size": 373,
      "int(": 374,
      "with": 375,
      "date": 376,
      "ini": 377,
      "0]": 378,
      "fe": 379,
      "num": 380,
      "from ": 381,
      "ic": 382,
      "config": 383,
      "self.asser": 384,
      "er.": 385,
      "atu": 386,
      "put": 387,
      "ren": 388,
      "<SCOPE_IN>if ": 389,
      "ht": 390,
      "ran": 391,
      "ist": 392,
      " = self.": 393,
      "ac": 394,
      "rror": 395,
      "1, ": 396,
      "self.assert": 397,
      "), (": 398,
      "wor": 399,
      "our": 400,
      "pr": 401,
      "com": 402,
      "user": 403,
      "- ": 404,
      "Error": 405,
      "[\"": 406,
      "_di": 407,
      "(self):\n": 408,
      "01": 409,
      "\", \"": 410,
      "ten": 411,
      "_s": 412,
      "pa": 413,
      "=\"": 414,
      "\"]": 415,
      "dex": 416,
      "else:\n": 417,
      "ces": 418,
      "line": 419,
      "ise": 420,
      "}\n": 421,
      "du": 422,
      "\"\"": 423,
      "py": 424,
      "_re": 425,
      "code": 426,
      "get": 427,
      "qual": 428,
      "(self.": 429,
      "quest": 430,
      "assert ": 431,
      "ci": 432,
      "d.": 433,
      "and ": 434,
      "<SCOPE_OUT>if ": 435,
      "**": 436,
      "ER": 437,
      "Con": 438,
      "12": 439,
      "et": 440,
      "stance": 441,
      "der": 442,
      "pre": 443,
      "ff": 444,
      "format": 445,
      "result": 446,
      "????": 447,
      "ource": 448,
      "the ": 449,
      "sha": 450,
      "=None": 451,
      ", '": 452,
      "ali": 453,
      "<SCOPE_OUT>else:\n": 454,
      "_st": 455,
      "ed": 456,
      "_b": 457,
      " is ": 458,
      "<SCOPE_IN>self.": 459,
      "load": 460,
      "get(": 461,
      "sub": 462,
      "> ": 463,
      "sor": 464,
      "mb": 465,
      "_type": 466,
      "class ": 467,
      "able": 468,
      "ing ": 469,
      "ho": 470,
      "ite": 471,
      "roup": 472,
      "sage": 473,
      "sy": 474,
      "mple": 475,
      "node": 476,
      "tor": 477,
      "max": 478,
      "add": 479,
      "url": 480,
      "y ": 481,
      "ment": 482,
      "onse": 483,
      "age": 484,
      "* ": 485,
      "scri": 486,
      "32": 487,
      "{\n": 488,
      "coun": 489,
      "ip": 490,
      "07": 491,
      "{'": 492,
      "as ": 493,
      "cur": 494,
      "1.": 495,
      "bel": 496,
      "' ": 497,
      "da": 498,
      "appen": 499,
      "])\n": 500,
      "vice": 501,
      "reate": 502,
      "len(": 503,
      "kw": 504,
      "ask": 505,
      "w_": 506,
      "], ": 507,
      "pec": 508,
      "},\n": 509,
      "\\u": 510,
      "defa": 511,
      "put_": 512,
      "69": 513,
      "raise": 514,
      "os.": 515,
      "ject": 516,
      "ST": 517,
      "s:\n": 518,
      "AT": 519,
      "resp": 520,
      "ype": 521,
      "al_": 522,
      "Fi": 523,
      "ssage": 524,
      "\\n": 525,
      "min": 526,
      "men": 527,
      "den": 528,
      "f.": 529,
      "loc": 530,
      "atch": 531,
      "flo": 532,
      "read": 533,
      "text": 534,
      "attr": 535,
      "try": 536,
      " = '": 537,
      "mage": 538,
      "shape": 539,
      "ep": 540,
      "is_": 541,
      "er(": 542,
      "3, ": 543,
      "\" ": 544,
      "Equal": 545,
      "Ex": 546,
      "ou": 547,
      "ctor": 548,
      "] = ": 549,
      "ag": 550,
      "_g": 551,
      "ca": 552,
      "eld": 553,
      "None\n": 554,
      "lay": 555,
      "2, ": 556,
      " - ": 557,
      "cli": 558,
      "to ": 559,
      "label": 560,
      "kwarg": 561,
      "instance": 562,
      "mi": 563,
      "=True": 564,
      "23": 565,
      "None:\n": 566,
      "<SCOPE_OUT>@": 567,
      "c_": 568,
      "ax": 569,
      "error": 570,
      "],\n": 571,
      "s):\n": 572,
      "10": 573,
      "son": 574,
      "m.b": 575,
      "db": 576,
      "param": 577,
      "index": 578,
      "{}": 579,
      " = \"": 580,
      "[0]": 581,
      "ct(": 582,
      "response": 583,
      "var": 584,
      "t__": 585,
      "comp": 586,
      "7.": 587,
      "RE": 588,
      "ph": 589,
      "request": 590,
      "y(": 591,
      "with ": 592,
      "Type": 593,
      "m_": 594,
      "star": 595,
      "lock": 596,
      "% ": 597,
      "wa": 598,
      "exce": 599,
      "ang": 600,
      "por": 601,
      "25": 602,
      "fun": 603,
      "run": 604,
      "-1": 605,
      "De": 606,
      "check": 607,
      "we": 608,
      "Co": 609,
      "dir": 610,
      "tran": 611,
      "[1": 612,
      "self.assertEqual": 613,
      "ie": 614,
      "or ": 615,
      "append(": 616,
      "\": \"": 617,
      "od": 618,
      "64": 619,
      "base": 620,
      "valid": 621,
      "image": 622,
      "ust": 623,
      "2.": 624,
      "im": 625,
      "tar": 626,
      "_de": 627,
      "item": 628,
      ", \"": 629,
      "message": 630,
      "ct_": 631,
      "end": 632,
      "est": 633,
      "version": 634,
      "15": 635,
      "has": 636,
      "raise ": 637,
      "_path": 638,
      "0\n": 639,
      "state": 640,
      "chan": 641,
      "<SCOPE_OUT>return ": 642,
      "set_": 643,
      "cont": 644,
      "range": 645,
      "Mo": 646,
      "a ": 647,
      "jo": 648,
      "*m.b": 649,
      "ot": 650,
      "arra": 651,
      "ure": 652,
      "au": 653,
      "pl": 654,
      "ator": 655,
      "ing_": 656,
      "work": 657,
      "mar": 658,
      "ON": 659,
      "16": 660,
      "y.": 661,
      "eli": 662,
      "%s": 663,
      "p_": 664,
      "ase": 665,
      "_par": 666,
      "ll": 667,
      "=False": 668,
      "ms": 669,
      "meth": 670,
      " import ": 671,
      "Pro": 672,
      "head": 673,
      "Val": 674,
      "add_": 675,
      "create": 676,
      "__ini": 677,
      "to_": 678,
      "json": 679,
      "back": 680,
      "lic": 681,
      "__init__": 682,
      "dtype": 683,
      "main": 684,
      "ted": 685,
      "s = [": 686,
      "OR": 687,
      "elif ": 688,
      "\t\t": 689,
      "path.": 690,
      "form": 691,
      "sen": 692,
      ".format": 693,
      "==": 694,
      "update": 695,
      "train": 696,
      "99": 697,
      "_pro": 698,
      "info": 699,
      "wri": 700,
      "comm": 701,
      "ken": 702,
      "option": 703,
      "T_": 704,
      "til": 705,
      "x.": 706,
      "DE": 707,
      "wn": 708,
      "ev": 709,
      "join": 710,
      "of ": 711,
      "0769": 712,
      "02": 713,
      "<SCOPE_OUT>def test_": 714,
      "be": 715,
      "logg": 716,
      "i.": 717,
      " = [": 718,
      "ec": 719,
      " * ": 720,
      "dule": 721,
      "self.assertEqual(": 722,
      "66": 723,
      "nel": 724,
      "st_": 725,
      "use": 726,
      "map": 727,
      "1\n": 728,
      "0)\n": 729,
      "<SCOPE_IN>raise ": 730,
      "Data": 731,
      "temp": 732,
      "\"\"\"\n": 733,
      "so": 734,
      "f_": 735,
      "output": 736,
      "table": 737,
      "22": 738,
      "late": 739,
      "float": 740,
      "sig": 741,
      "_size": 742,
      "os.path.": 743,
      "zer": 744,
      "0,": 745,
      "``": 746,
      "ab": 747,
      "EN": 748,
      "alize": 749,
      "<SCOPE_OUT>elif ": 750,
      "ute": 751,
      "n_": 752,
      "+= ": 753,
      " and ": 754,
      "obj": 755,
      "gr": 756,
      "pi": 757,
      "..": 758,
      "reg": 759,
      "fil": 760,
      ".c": 761,
      "inter": 762,
      "')": 763,
      "s,\n": 764,
      "18": 765,
      "gra": 766,
      "14": 767,
      "group": 768,
      "Value": 769,
      "St": 770,
      "s(self": 771,
      "gen": 772,
      "excep": 773,
      "print(": 774,
      ") == ": 775,
      "util": 776,
      "field": 777,
      "        ": 778,
      "_f": 779,
      "s['": 780,
      "s/": 781,
      "cor": 782,
      "tp": 783,
      "statu": 784,
      "write": 785,
      "token": 786,
      "object": 787,
      "ent_": 788,
      "']\n": 789,
      "x_": 790,
      "torch": 791,
      "d = ": 792,
      "try:\n": 793,
      "war": 794,
      "default": 795,
      "row": 796,
      "ub": 797,
      "Me": 798,
      "-> ": 799,
      "Name": 800,
      "str(": 801,
      "hel": 802,
      "Test": 803,
      "<SCOPE_OUT><SCOPE_OUT>def ": 804,
      "_data": 805,
      "tag": 806,
      "ir": 807,
      "sup": 808,
      "open": 809,
      "lib": 810,
      "quer": 811,
      "t = ": 812,
      "isinstance": 813,
      "lin": 814,
      "method": 815,
      "5, ": 816,
      "Se": 817,
      "c.": 818,
      "ent.": 819,
      "Lo": 820,
      " for ": 821,
      "df": 822,
      "'),\n": 823,
      "ire": 824,
      ") -> ": 825,
      "x, ": 826,
      "13": 827,
      "17": 828,
      "lace": 829,
      "yn": 830,
      "new": 831,
      "ses": 832,
      "ameter": 833,
      "/ ": 834,
      "source": 835,
      "proper": 836,
      "rame": 837,
      "scription": 838,
      "string": 839,
      "ME": 840,
      "o.": 841,
      "ml": 842,
      "isinstance(": 843,
      "ull": 844,
      "ID": 845,
      "range(": 846,
      "ber": 847,
      "ile": 848,
      ".format(": 849,
      "LE": 850,
      "ok": 851,
      "gth": 852,
      "action": 853,
      "expec": 854,
      "_file": 855,
      "und": 856,
      "ted_": 857,
      "umn": 858,
      "mock": 859,
      "':\n": 860,
      "19": 861,
      "_po": 862,
      "msg": 863,
      "curren": 864,
      "'] = ": 865,
      "fix": 866,
      "AR": 867,
      "ight": 868,
      "Th": 869,
      "<SCOPE_OUT>excep": 870,
      "AL": 871,
      "filter": 872,
      "\\\n": 873,
      "s: ": 874,
      "ing.": 875,
      "_con": 876,
      "buil": 877,
      "resource": 878,
      "_m": 879,
      "En": 880,
      "04": 881,
      "1)\n": 882,
      "core": 883,
      "----": 884,
      "orm": 885,
      "wh": 886,
      "].": 887,
      "input_": 888,
      "!= ": 889,
      "lename": 890,
      "fin": 891,
      "auth": 892,
      "24": 893,
      "join(": 894,
      "ent(": 895,
      "33": 896,
      "net": 897,
      "Option": 898,
      "=None, ": 899,
      "seri": 900,
      "False\n": 901,
      "header": 902,
      "spli": 903,
      "vo": 904,
      "SE": 905,
      "by": 906,
      "args.": 907,
      "filename": 908,
      " = None\n": 909,
      "_e": 910,
      "_value": 911,
      "input": 912,
      " is not ": 913,
      "parse": 914,
      "0000": 915,
      "S_": 916,
      "count": 917,
      "argum": 918,
      "True\n": 919,
      "set(": 920,
      "ult_": 921,
      "vie": 922,
      "():\n": 923,
      "g.": 924,
      "ting": 925,
      "stri": 926,
      "length": 927,
      "def __init__": 928,
      "n.": 929,
      "8, ": 930,
      "low": 931,
      "sr": 932,
      "test.": 933,
      "torch.": 934,
      "host": 935,
      "':": 936,
      "List": 937,
      "AN": 938,
      "Un": 939,
      "//": 940,
      "spa": 941,
      " = np.": 942,
      "No": 943,
      " == '": 944,
      "230769": 945,
      "sta": 946,
      "trans": 947,
      "proces": 948,
      "{\"": 949,
      " of ": 950,
      "api": 951,
      "output_": 952,
      "cal": 953,
      "arch": 954,
      "task": 955,
      "**kwarg": 956,
      "assert_": 957,
      "num_": 958,
      "addres": 959,
      ", self.": 960,
      "s()\n": 961,
      "http": 962,
      "sho": 963,
      "sum": 964,
      "device": 965,
      "86": 966,
      "Par": 967,
      "call": 968,
      "sk": 969,
      "[\n": 970,
      "if": 971,
      "TI": 972,
      "sample": 973,
      "ature": 974,
      "it ": 975,
      "batch": 976,
      "ion": 977,
      "tf.": 978,
      "module": 979,
      "place": 980,
      "<SCOPE_OUT>except ": 981,
      "g_": 982,
      "mode": 983,
      "face": 984,
      "om": 985,
      "4, ": 986,
      "scrip": 987,
      "block": 988,
      "201": 989,
      "Po": 990,
      "27": 991,
      "if not ": 992,
      "t, ": 993,
      "lob": 994,
      "RO": 995,
      "ste": 996,
      "ree": 997,
      "oth": 998,
      "los": 999,
      "hand": 1000,
      "lu": 1001,
      "iter": 1002,
      "_list": 1003,
      "quire": 1004,
      "tle": 1005,
      "doc": 1006,
      "tive": 1007,
      "conne": 1008,
      " in range(": 1009,
      "05": 1010,
      "models.": 1011,
      "property": 1012,
      "ception": 1013,
      "get('": 1014,
      "d, ": 1015,
      "0x": 1016,
      "cm": 1017,
      "ha": 1018,
      "\\u5": 1019,
      "space": 1020,
      "()": 1021,
      "ext": 1022,
      "new_": 1023,
      "be ": 1024,
      ", 1, ": 1025,
      "3.": 1026,
      "tx": 1027,
      "channel": 1028,
      "wid": 1029,
      "tain": 1030,
      "server": 1031,
      "pri": 1032,
      "go": 1033,
      "ass": 1034,
      "100": 1035,
      "parser": 1036,
      "exten": 1037,
      "tri": 1038,
      "_dir": 1039,
      "LO": 1040,
      "Exception": 1041,
      "34": 1042,
      "',": 1043,
      "77": 1044,
      "man": 1045,
      "vel": 1046,
      "bute": 1047,
      "AC": 1048,
      "<SCOPE_IN>pr": 1049,
      "stra": 1050,
      "session": 1051,
      "ate_": 1052,
      "scal": 1053,
      ") + ": 1054,
      "ker": 1055,
      ",\"": 1056,
      " (": 1057,
      "denti": 1058,
      "color": 1059,
      "word": 1060,
      "File": 1061,
      "[i": 1062,
      "save": 1063,
      "olu": 1064,
      "\":": 1065,
      "name, ": 1066,
      "11": 1067,
      "view": 1068,
      "lete": 1069,
      "28": 1070,
      "<SCOPE_OUT><SCOPE_OUT>class ": 1071,
      "s.append(": 1072,
      "[0": 1073,
      "None,\n": 1074,
      "None, ": 1075,
      "Str": 1076,
      ".get_": 1077,
      "ore": 1078,
      "max_": 1079,
      "An": 1080,
      "Di": 1081,
      "plo": 1082,
      "=True)\n": 1083,
      " <": 1084,
      "_pre": 1085,
      "are": 1086,
      "Ar": 1087,
      "move": 1088,
      "s import ": 1089,
      "03": 1090,
      " to ": 1091,
      "igh": 1092,
      "(f": 1093,
      "29": 1094,
      "ation_": 1095,
      "D_": 1096,
      "09": 1097,
      "link": 1098,
      "<SCOPE_IN>for ": 1099,
      "_info": 1100,
      "point": 1101,
      "exec": 1102,
      "Ad": 1103,
      "match": 1104,
      "column": 1105,
      "_param": 1106,
      "lose": 1107,
      "asyn": 1108,
      "[:": 1109,
      "6, ": 1110,
      "ity": 1111,
      "dict": 1112,
      "s[0]": 1113,
      "cle": 1114,
      "</": 1115,
      "y, ": 1116,
      "mm": 1117,
      "tensor": 1118,
      "://": 1119,
      "layer": 1120,
      "((": 1121,
      "Ser": 1122,
      "lamb": 1123,
      "TE": 1124,
      "off": 1125,
      "ulti": 1126,
      "title": 1127,
      " += ": 1128,
      "=self.": 1129,
      "0:\n": 1130,
      "pp": 1131,
      "function": 1132,
      "AP": 1133,
      "help": 1134,
      "SI": 1135,
      "make": 1136,
      "Ch": 1137,
      "Optional": 1138,
      "else ": 1139,
      "{}\n": 1140,
      "service": 1141,
      "ele": 1142,
      "_n": 1143,
      "))": 1144,
      "exp": 1145,
      "rando": 1146,
      "ude": 1147,
      "([": 1148,
      "().": 1149,
      "dict(": 1150,
      "bin": 1151,
      "ed_": 1152,
      "'])\n": 1153,
      "tie": 1154,
      "dim": 1155,
      "y = ": 1156,
      "default_": 1157,
      "number": 1158,
      "start": 1159,
      ".add_": 1160,
      "func": 1161,
      "env": 1162,
      "adata": 1163,
      "vari": 1164,
      "t()\n": 1165,
      "lambda": 1166,
      "al ": 1167,
      "To": 1168,
      "ream": 1169,
      "out_": 1170,
      "er ": 1171,
      "ron": 1172,
      "08": 1173,
      "config.": 1174,
      "2)\n": 1175,
      "\" % ": 1176,
      "cate": 1177,
      ") as ": 1178,
      "())\n": 1179,
      "Ke": 1180,
      "sign": 1181,
      "tern": 1182,
      "and_": 1183,
      "posi": 1184,
      "ak": 1185,
      "mail": 1186,
      "an ": 1187,
      "db.": 1188,
      "=None,\n": 1189,
      "port": 1190,
      "byte": 1191,
      "_dict": 1192,
      "ding": 1193,
      "<SCOPE_OUT>\n": 1194,
      "setting": 1195,
      "bi": 1196,
      " = self._": 1197,
      "time.": 1198,
      "enti": 1199,
      "u'": 1200,
      "Field": 1201,
      "content": 1202,
      "uni": 1203,
      "AS": 1204,
      "ly": 1205,
      "tot": 1206,
      "fir": 1207,
      "35": 1208,
      "ru": 1209,
      "FI": 1210,
      "array(": 1211,
      "change": 1212,
      "win": 1213,
      ",\t\t": 1214,
      "target": 1215,
      "RI": 1216,
      "erate": 1217,
      "' % ": 1218,
      "met": 1219,
      "})\n": 1220,
      "DI": 1221,
      "tric": 1222,
      "ulum": 1223,
      "serialize": 1224,
      ".p": 1225,
      "(x": 1226,
      "Ti": 1227,
      "sv": 1228,
      "spe": 1229,
      " or ": 1230,
      "int_": 1231,
      "av": 1232,
      "lag": 1233,
      "Model": 1234,
      "for i": 1235,
      "on_": 1236,
      "ValueError": 1237,
      " as ": 1238,
      "exist": 1239,
      "utils.": 1240,
      "dire": 1241,
      "sq": 1242,
      "ulumi.": 1243,
      "bool": 1244,
      "Id": 1245,
      "\\x00": 1246,
      "ort": 1247,
      "s': ": 1248,
      "level": 1249,
      "\"]\n": 1250,
      "bug": 1251,
      "pack": 1252,
      "oper": 1253,
      "unit": 1254,
      "Col": 1255,
      "mis": 1256,
      "def __init__(self, ": 1257,
      "ild": 1258,
      "200": 1259,
      "0.4": 1260,
      "awa": 1261,
      "ord": 1262,
      "frame": 1263,
      " == \"": 1264,
      "require": 1265,
      "AG": 1266,
      "down": 1267,
      "s',\n": 1268,
      "\":\n": 1269,
      "sys.": 1270,
      "context": 1271,
      "_P": 1272,
      "stru": 1273,
      " != ": 1274,
      "<SCOPE_IN>print(": 1275,
      "Set": 1276,
      "ning": 1277,
      "int ": 1278,
      "26": 1279,
      "gin": 1280,
      "_state": 1281,
      "property\n": 1282,
      "bod": 1283,
      "s']": 1284,
      "box": 1285,
      "obje": 1286,
      "Optional[": 1287,
      "order": 1288,
      "0, 1": 1289,
      "0,\n": 1290,
      ".\n": 1291,
      ".re": 1292,
      "====": 1293,
      "Ac": 1294,
      "s = []\n": 1295,
      "s():\n": 1296,
      "ger": 1297,
      "name='": 1298,
      "Get": 1299,
      "width": 1300,
      "metadata": 1301,
      "0,\t\t": 1302,
      "ast": 1303,
      "uid": 1304,
      "CH": 1305,
      "lat": 1306,
      "the": 1307,
      "enum": 1308,
      "description": 1309,
      "mask": 1310,
      "   ": 1311,
      "ment_": 1312,
      "_key": 1313,
      "cation": 1314,
      "89": 1315,
      "command": 1316,
      "ler": 1317,
      "ample": 1318,
      "sche": 1319,
      "jang": 1320,
      "':{'": 1321,
      "dat": 1322,
      "img": 1323,
      "06": 1324,
      "uple": 1325,
      "Time": 1326,
      "clude": 1327,
      "]:\n": 1328,
      "template": 1329,
      "await ": 1330,
      "':{'en": 1331,
      "55": 1332,
      "super(": 1333,
      "gor": 1334,
      "mark": 1335,
      ".append(": 1336,
      "l_": 1337,
      "copy": 1338,
      "cf": 1339,
      "nu": 1340,
      "':{'en': '": 1341,
      "7, ": 1342,
      " the ": 1343,
      "ence": 1344,
      "uto": 1345,
      "ss": 1346,
      " not ": 1347,
      "<SCOPE_IN>self._": 1348,
      "ref": 1349,
      "w.": 1350,
      "attri": 1351,
      "contain": 1352,
      "graph": 1353,
      "36": 1354,
      "weight": 1355,
      "c ": 1356,
      "argument(": 1357,
      "query": 1358,
      ")))\n": 1359,
      "'},\n": 1360,
      "s(self):\n": 1361,
      "djang": 1362,
      "in_": 1363,
      "red": 1364,
      "self, ": 1365,
      "extra": 1366,
      "network": 1367,
      "8, 1": 1368,
      "''": 1369,
      ". ": 1370,
      ".de": 1371,
      "_group": 1372,
      "initi": 1373,
      " is not None:\n": 1374,
      "Config": 1375,
      "full": 1376,
      "le_": 1377,
      "rig": 1378,
      "paren": 1379,
      "Bu": 1380,
      "ong": 1381,
      "EX": 1382,
      "ize": 1383,
      "'))\n": 1384,
      "pulumi.": 1385,
      "olume": 1386,
      "model.": 1387,
      "ack": 1388,
      "req": 1389,
      "=None):\n": 1390,
      "TY": 1391,
      "0, 0, ": 1392,
      " = []\n": 1393,
      "name__": 1394,
      "sele": 1395,
      "Do": 1396,
      "zero": 1397,
      "[1]": 1398,
      ") for ": 1399,
      "split(": 1400,
      "The ": 1401,
      "fiel": 1402,
      "ant": 1403,
      "La": 1404,
      "UR": 1405,
      "(1": 1406,
      "hash": 1407,
      "metric": 1408,
      "list(": 1409,
      "event": 1410,
      "bl": 1411,
      "????????": 1412,
      "``\n": 1413,
      "UN": 1414,
      "cu": 1415,
      "84": 1416,
      "from_": 1417,
      "norm": 1418,
      "create_": 1419,
      "x = ": 1420,
      "eval": 1421,
      "__name__": 1422,
      "type=": 1423,
      "equal": 1424,
      "<SCOPE_OUT>class ": 1425,
      "s[\"": 1426,
      "top": 1427,
      "ING": 1428,
      "LI": 1429,
      "Key": 1430,
      ": str": 1431,
      "s(self, ": 1432,
      "og": 1433,
      "CON": 1434,
      "glob": 1435,
      "emp": 1436,
      "step": 1437,
      "39": 1438,
      "logger.": 1439,
      "ER_": 1440,
      "raw": 1441,
      "Bo": 1442,
      "0 ": 1443,
      "char": 1444,
      "User": 1445,
      "if self.": 1446,
      "target_": 1447,
      "MM": 1448,
      "def test_": 1449,
      "uration": 1450,
      "<SCOPE_OUT>def _": 1451,
      "axi": 1452,
      "act": 1453,
      "location": 1454,
      "attribute": 1455,
      "dep": 1456,
      "???": 1457,
      "nn.": 1458,
      "current_": 1459,
      "spec": 1460,
      "all_": 1461,
      "1 = ": 1462,
      "_index": 1463,
      "feren": 1464,
      "parameter": 1465,
      "'):\n": 1466,
      "store": 1467,
      "UL": 1468,
      "f\"": 1469,
      "er = ": 1470,
      "mean": 1471,
      "2\n": 1472,
      "P_": 1473,
      "method\n": 1474,
      "feature": 1475,
      "mon": 1476,
      "orig": 1477,
      "start_": 1478,
      "Cl": 1479,
      "os.path.join(": 1480,
      "def": 1481,
      "<SCOPE_OUT>def get_": 1482,
      "cre": 1483,
      "of": 1484,
      "cope": 1485,
      "tmp": 1486,
      "*arg": 1487,
      "client.": 1488,
      ".set": 1489,
      "<SCOPE_OUT>@property\n": 1490,
      "data_": 1491,
      "2 = ": 1492,
      "django.": 1493,
      "Not": 1494,
      "pytest.": 1495,
      "job": 1496,
      "sw": 1497,
      "name)\n": 1498,
      "45": 1499,
      "io": 1500,
      "src": 1501,
      "\".format(": 1502,
      "ted ": 1503,
      "it_": 1504,
      "exception": 1505,
      "get(\"": 1506,
      "} ": 1507,
      "' in ": 1508,
      "AD": 1509,
      "[2": 1510,
      "'],\n": 1511,
      "class_": 1512,
      "meta": 1513,
      "=1": 1514,
      "85": 1515,
      "75": 1516,
      "<SCOPE_OUT>self.": 1517,
      "search": 1518,
      "=False, ": 1519,
      "lambda ": 1520,
      "Group": 1521,
      "tail": 1522,
      ")):\n": 1523,
      "page": 1524,
      "' + ": 1525,
      "nex": 1526,
      "on ": 1527,
      "alle": 1528,
      "ill": 1529,
      "is not ": 1530,
      "lable": 1531,
      "bit": 1532,
      "String": 1533,
      "local": 1534,
      "ES": 1535,
      "cache": 1536,
      "NA": 1537,
      "r.": 1538,
      " is None:\n": 1539,
      "4.": 1540,
      "data.": 1541,
      "b.": 1542,
      "Base": 1543,
      "ary": 1544,
      "Request": 1545,
      "v_": 1546,
      "html": 1547,
      "mit": 1548,
      ")),\n": 1549,
      "extension": 1550,
      "ce_": 1551,
      "re.": 1552,
      "TH": 1553,
      "3, 0.": 1554,
      "_cli": 1555,
      "s', ": 1556,
      "zip": 1557,
      "\"),\n": 1558,
      " = 0\n": 1559,
      "None)\n": 1560,
      "stream": 1561,
      "af": 1562,
      "1 ": 1563,
      "Path": 1564,
      "a.": 1565,
      "ard": 1566,
      "pop": 1567,
      "clust": 1568,
      "scale": 1569,
      "iz": 1570,
      "s(\n": 1571,
      "'), ": 1572,
      "post": 1573,
      "ET": 1574,
      "dow": 1575,
      " = _": 1576,
      "<SCOPE_OUT>def __": 1577,
      "opt": 1578,
      "load_": 1579,
      "'.format(": 1580,
      "0769230769": 1581,
      "0769230769230769": 1582,
      "check_": 1583,
      "array": 1584,
      "inst": 1585,
      "lef": 1586,
      "cke": 1587,
      "AB": 1588,
      "pt": 1589,
      "unk": 1590,
      "expr": 1591,
      "contin": 1592,
      "admin": 1593,
      "recor": 1594,
      "variable": 1595,
      "domain": 1596,
      "tool": 1597,
      "s = self.": 1598,
      "Ob": 1599,
      "MP": 1600,
      "idx": 1601,
      "at ": 1602,
      "client": 1603,
      "<SCOPE_OUT><SCOPE_OUT>\n": 1604,
      "ative": 1605,
      "cr": 1606,
      "At": 1607,
      "stati": 1608,
      "quence": 1609,
      "[0]\n": 1610,
      "ct ": 1611,
      "(), ": 1612,
      "dro": 1613,
      "scriptor": 1614,
      "nump": 1615,
      "lection": 1616,
      "Text": 1617,
      ")]\n": 1618,
      "cho": 1619,
      "volume": 1620,
      "L_": 1621,
      " = True\n": 1622,
      "79": 1623,
      "expected_": 1624,
      "ind": 1625,
      "over": 1626,
      "lication": 1627,
      "PO": 1628,
      "err": 1629,
      "return\n": 1630,
      "\" + ": 1631,
      "rate": 1632,
      "l.": 1633,
      "cat": 1634,
      "stamp": 1635,
      "Or": 1636,
      "5.": 1637,
      "multi": 1638,
      ".add_argument(": 1639,
      "a_": 1640,
      "attr(": 1641,
      "Cli": 1642,
      "'], ": 1643,
      "Fa": 1644,
      "ener": 1645,
      "pub": 1646,
      " = {\n": 1647,
      "e-": 1648,
      "auto": 1649,
      "const": 1650,
      "delete": 1651,
      "mbol": 1652,
      "\"\"\"": 1653,
      " in self.": 1654,
      "older": 1655,
      "other": 1656,
      "38": 1657,
      "(r": 1658,
      "cces": 1659,
      "contex": 1660,
      "viron": 1661,
      "44": 1662,
      "Up": 1663,
      "stem": 1664,
      "ign": 1665,
      "close": 1666,
      "emb": 1667,
      "sn": 1668,
      "##": 1669,
      "=True, ": 1670,
      "logging.": 1671,
      "_url": 1672,
      "ai": 1673,
      "put(": 1674,
      "poch": 1675,
      "MA": 1676,
      "sing": 1677,
      "dataset": 1678,
      "opti": 1679,
      "d\n": 1680,
      "pass": 1681,
      "class": 1682,
      "Resp": 1683,
      "site": 1684,
      "><": 1685,
      "0.5": 1686,
      "ange": 1687,
      "not": 1688,
      "3, 0.0769230769230769": 1689,
      "'.": 1690,
      "proto": 1691,
      "1_": 1692,
      "enco": 1693,
      "TR": 1694,
      "tuple": 1695,
      "s))\n": 1696,
      ";\n": 1697,
      "stat": 1698,
      "Statu": 1699,
      "rule": 1700,
      "<SCOPE_IN>return self.": 1701,
      "65": 1702,
      "true": 1703,
      "expected": 1704,
      " = False\n": 1705,
      "6.": 1706,
      "<SCOPE_OUT><SCOPE_OUT>if ": 1707,
      "print(\"": 1708,
      "open(": 1709,
      "rad": 1710,
      "dtype=": 1711,
      "%s ": 1712,
      "as_": 1713,
      "example": 1714,
      "pk": 1715,
      "response.": 1716,
      "rap": 1717,
      "enable": 1718,
      "_time": 1719,
      "_S": 1720,
      "Add": 1721,
      "_to_": 1722,
      "email": 1723,
      "conv": 1724,
      "--------": 1725,
      "flag": 1726,
      "Fiel": 1727,
      "continue": 1728,
      "<SCOPE_IN>try:\n": 1729,
      "FA": 1730,
      "_map": 1731,
      "','": 1732,
      "US": 1733,
      "ye": 1734,
      "s\": ": 1735,
      ".com": 1736,
      ": Optional[": 1737,
      "vid": 1738,
      "interface": 1739,
      "ice": 1740,
      "s in ": 1741,
      "bar": 1742,
      "**kwargs):\n": 1743,
      "9, ": 1744,
      "build_": 1745,
      "Var": 1746,
      "Response": 1747,
      "88": 1748,
      "<SCOPE_OUT><SCOPE_OUT>return ": 1749,
      "grad": 1750,
      "request.": 1751,
      "en ": 1752,
      " - 0.4": 1753,
      "\"] = ": 1754,
      "ive": 1755,
      "m.x": 1756,
      "https": 1757,
      " / ": 1758,
      "b_": 1759,
      "Message": 1760,
      "root": 1761,
      "while": 1762,
      "mission": 1763,
      "a, ": 1764,
      "MO": 1765,
      "=False)\n": 1766,
      "debug": 1767,
      "resh": 1768,
      "first": 1769,
      "NO": 1770,
      "dri": 1771,
      "with_": 1772,
      ") and ": 1773,
      "idden": 1774,
      "syn": 1775,
      "old": 1776,
      "uuid": 1777,
      "Index": 1778,
      "37": 1779,
      "[str": 1780,
      "execute": 1781,
      "factor": 1782,
      "end_": 1783,
      "hist": 1784,
      "ual": 1785,
      "<SCOPE_IN>def ": 1786,
      "dest": 1787,
      "ton": 1788,
      "peline": 1789,
      "edge": 1790,
      "pol": 1791,
      "now": 1792,
      "result = ": 1793,
      "gener": 1794,
      "3,": 1795,
      "objects.": 1796,
      "comple": 1797,
      "Field(": 1798,
      "20": 1799,
      "TT": 1800,
      "<SCOPE_IN>if not ": 1801,
      "void": 1802,
      "dition": 1803,
      "\\x9": 1804,
      "foo": 1805,
      "67": 1806,
      "Tran": 1807,
      "Log": 1808,
      "SC": 1809,
      "disp": 1810,
      "ference": 1811,
      "<SCOPE_IN>raise ValueError": 1812,
      "Ra": 1813,
      "replace": 1814,
      "verbo": 1815,
      "3, 0.07692307692307693, 0.0769230769230769": 1816,
      "\\x00\\x00": 1817,
      "regist": 1818,
      "secon": 1819,
      "For": 1820,
      "cell": 1821,
      "ent ": 1822,
      "Sub": 1823,
      "parser.add_argument(": 1824,
      "last": 1825,
      "cy": 1826,
      "roo": 1827,
      "] ": 1828,
      "succes": 1829,
      "Table": 1830,
      ": int": 1831,
      "app.": 1832,
      "ument": 1833,
      "Run": 1834,
      "environ": 1835,
      "connection": 1836,
      "my": 1837,
      "remove": 1838,
      "total": 1839,
      "lease": 1840,
      "fail": 1841,
      "ash": 1842,
      "1:\n": 1843,
      ": \"": 1844,
      "').": 1845,
      "87": 1846,
      "State": 1847,
      "data = ": 1848,
      "matri": 1849,
      ").__init__": 1850,
      "tree": 1851,
      "contro": 1852,
      "identi": 1853,
      "bre": 1854,
      "https://": 1855,
      "EC": 1856,
      "us": 1857,
      "NAME": 1858,
      "can": 1859,
      "kwargs.": 1860,
      "d in ": 1861,
      "by_": 1862,
      "( ": 1863,
      "d)\n": 1864,
      "cv": 1865,
      "'--": 1866,
      "thread": 1867,
      "status_": 1868,
      "Res": 1869,
      "author": 1870,
      "MI": 1871,
      "\\\\": 1872,
      "Inte": 1873,
      "include": 1874,
      "Node": 1875,
      "continue\n": 1876,
      " < ": 1877,
      "FF": 1878,
      "body": 1879,
      "attern": 1880,
      "name = ": 1881,
      "moun": 1882,
      "dump": 1883,
      "skip": 1884,
      "Cont": 1885,
      "s[1": 1886,
      "entry": 1887,
      "._": 1888,
      "ust ": 1889,
      "saction": 1890,
      "s', '": 1891,
      "Info": 1892,
      "append": 1893,
      "X_": 1894,
      "red_": 1895,
      "\",\"": 1896,
      "batch_size": 1897,
      "\"):\n": 1898,
      "Input": 1899,
      "Dict": 1900,
      "Constra": 1901,
      "IO": 1902,
      "fn": 1903,
      "s\",\n": 1904,
      "ain": 1905,
      "re ": 1906,
      "Che": 1907,
      "TO": 1908,
      "for i in range(": 1909,
      ") * ": 1910,
      "enter": 1911,
      "verbose": 1912,
      "Y_": 1913,
      "s=[": 1914,
      "cc": 1915,
      "conver": 1916,
      "plt.": 1917,
      "A_": 1918,
      "trie": 1919,
      "8.": 1920,
      "tem": 1921,
      "\\xf": 1922,
      "flow": 1923,
      "acces": 1924,
      "setup": 1925,
      "transform": 1926,
      "cap": 1927,
      "t)\n": 1928,
      "\\xb": 1929,
      "file.": 1930,
      "optimi": 1931,
      "kernel": 1932,
      "hidden": 1933,
      "_arg": 1934,
      "\\u5e": 1935,
      "<SCOPE_IN>with ": 1936,
      "<SCOPE_OUT><SCOPE_OUT>else:\n": 1937,
      "stop": 1938,
      "][": 1939,
      "\\xe": 1940,
      "vide": 1941,
      "ader": 1942,
      "ed ": 1943,
      " -": 1944,
      "%(": 1945,
      "49": 1946,
      "stack": 1947,
      "ensor": 1948,
      " = (": 1949,
      "b'": 1950,
      "),": 1951,
      "Error:\n": 1952,
      "thon": 1953,
      "Num": 1954,
      "id, ": 1955,
      "strip": 1956,
      "type(": 1957,
      "verse": 1958,
      "name=\"": 1959,
      "addr": 1960,
      "this ": 1961,
      "**kwargs)\n": 1962,
      "self):\n": 1963,
      "aliz": 1964,
      " {": 1965,
      "lang": 1966,
      "set ": 1967,
      "timeout": 1968,
      "<SCOPE_OUT><SCOPE_OUT>@": 1969,
      "async ": 1970,
      "Comp": 1971,
      "limit": 1972,
      "_name, ": 1973,
      "ON_": 1974,
      "warning": 1975,
      "Pre": 1976,
      "_create": 1977,
      "Op": 1978,
      "indi": 1979,
      "tch": 1980,
      "mer": 1981,
      "ly ": 1982,
      "stor": 1983,
      "cer": 1984,
      "bound": 1985,
      "_d": 1986,
      "<SCOPE_IN>super(": 1987,
      "origin": 1988,
      "seq": 1989,
      "gi": 1990,
      "equal(": 1991,
      "s\"]": 1992,
      "}, ": 1993,
      "M_": 1994,
      "ty_": 1995,
      "Sy": 1996,
      ">\n": 1997,
      "alizer": 1998,
      "DAT": 1999,
      "atures": 2000,
      "alph": 2001,
      "lou": 2002,
      "zh": 2003,
      "client_": 2004,
      "offset": 2005,
      "t\n": 2006,
      "user_": 2007,
      "active": 2008,
      "static": 2009,
      "datetime": 2010,
      "re_": 2011,
      "Py": 2012,
      "\"))\n": 2013,
      "Arg": 2014,
      " > ": 2015,
      "ment(": 2016,
      "_parameter": 2017,
      "while ": 2018,
      "Ele": 2019,
      "=0.": 2020,
      ">= ": 2021,
      "_step": 2022,
      "Frame": 2023,
      "Ev": 2024,
      "sol": 2025,
      "speci": 2026,
      "': {'": 2027,
      "fier": 2028,
      "...": 2029,
      "s('": 2030,
      "<SCOPE_OUT>for ": 2031,
      "cls.": 2032,
      "rp": 2033,
      "1,": 2034,
      " ????": 2035,
      "json.": 2036,
      "metho": 2037,
      "(p": 2038,
      "*args, ": 2039,
      "r_": 2040,
      "height": 2041,
      "uth": 2042,
      "], [": 2043,
      "dev": 2044,
      "\\xa": 2045,
      "_version": 2046,
      ") - ": 2047,
      "'].": 2048,
      ") > ": 2049,
      "Al": 2050,
      "< ": 2051,
      "run_": 2052,
      "2_": 2053,
      "position": 2054,
      "has_": 2055,
      "sec": 2056,
      "512": 2057,
      "params.": 2058,
      "Tra": 2059,
      "hape": 2060,
      "lear": 2061,
      "ache": 2062,
      "ression": 2063,
      "driver": 2064,
      "org": 2065,
      "Check": 2066,
      "break": 2067,
      "utton": 2068,
      "le.": 2069,
      "random.": 2070,
      "der_": 2071,
      "2, 1": 2072,
      "Ver": 2073,
      "axis=": 2074,
      ", self": 2075,
      "loop": 2076,
      "help='": 2077,
      "ment ": 2078,
      "mem": 2079,
      "mote": 2080,
      "key_": 2081,
      "\"), ": 2082,
      " else ": 2083,
      "ank": 2084,
      "encode": 2085,
      "Column": 2086,
      "lib.": 2087,
      "s)": 2088,
      "ustom": 2089,
      "node.": 2090,
      "Tensor": 2091,
      "\\t": 2092,
      "s')\n": 2093,
      "s[i": 2094,
      "1,\n": 2095,
      "': u": 2096,
      "classe": 2097,
      "pool": 2098,
      "epoch": 2099,
      "id_": 2100,
      "diction": 2101,
      "collection": 2102,
      "6666": 2103,
      "\\xc": 2104,
      "swith": 2105,
      "1, 1": 2106,
      "seg": 2107,
      "prefix": 2108,
      "rel": 2109,
      "']['": 2110,
      "project": 2111,
      "CT": 2112,
      "fetch": 2113,
      "parti": 2114,
      "queue": 2115,
      "model_": 2116,
      "mal": 2117,
      "(np.": 2118,
      " if ": 2119,
      "add(": 2120,
      ": 8, 1": 2121,
      "ib": 2122,
      "package": 2123,
      "3, 1": 2124,
      "show": 2125,
      "fication": 2126,
      " not in ": 2127,
      "must ": 2128,
      "pay": 2129,
      "raph": 2130,
      "Image": 2131,
      "PE": 2132,
      "symbol": 2133,
      "59": 2134,
      "data, ": 2135,
      "ng": 2136,
      "')},\n": 2137,
      "Inter": 2138,
      "Out": 2139,
      "categor": 2140,
      ": '": 2141,
      "update_": 2142,
      "yi": 2143,
      "ATI": 2144,
      "<SCOPE_OUT>def test": 2145,
      "30": 2146,
      "Man": 2147,
      "next_": 2148,
      "uld ": 2149,
      "delta": 2150,
      "_name='": 2151,
      "He": 2152,
      "score": 2153,
      "print('": 2154,
      "47": 2155,
      "cket": 2156,
      "eng": 2157,
      "medi": 2158,
      "or_": 2159,
      "name\n": 2160,
      "compon": 2161,
      "_dict(": 2162,
      "timestamp": 2163,
      "G_": 2164,
      "ture": 2165,
      "ctx": 2166,
      "': u('": 2167,
      "True)\n": 2168,
      "KE": 2169,
      "Is": 2170,
      "old_": 2171,
      "Resource": 2172,
      "suppor": 2173,
      "s\")\n": 2174,
      "dic": 2175,
      "True,\n": 2176,
      "o_": 2177,
      "element": 2178,
      "struct": 2179,
      "put ": 2180,
      "\")": 2181,
      "safe": 2182,
      "rt": 2183,
      "8615": 2184,
      "vision": 2185,
      " = get_": 2186,
      "key, ": 2187,
      "\\xd": 2188,
      "Line": 2189,
      "i, ": 2190,
      "byte>": 2191,
      "return self.": 2192,
      "'8615": 2193,
      "zh': u('": 2194,
      "_id, ": 2195,
      "update(": 2196,
      " = p": 2197,
      "e.": 2198,
      "features": 2199,
      "<SCOPE_IN>assert ": 2200,
      "ration": 2201,
      "', 'zh': u('": 2202,
      "rank": 2203,
      "_per": 2204,
      "file_": 2205,
      "_request": 2206,
      "Ro": 2207,
      "4, 1": 2208,
      "sition": 2209,
      "Fo": 2210,
      "Comm": 2211,
      "for_": 2212,
      "right": 2213,
      "type': '": 2214,
      "=False,\n": 2215,
      "Raise": 2216,
      "uage": 2217,
      "api.": 2218,
      "Per": 2219,
      "acti": 2220,
      "last_": 2221,
      "ly_": 2222,
      "buff": 2223,
      "{0": 2224,
      "Case": 2225,
      "Ne": 2226,
      "conten": 2227,
      "xml": 2228,
      "ory": 2229,
      "_block": 2230,
      "embed": 2231,
      "transaction": 2232,
      "s = {}\n": 2233,
      "only": 2234,
      "day": 2235,
      "er, ": 2236,
      "is not None:\n": 2237,
      "(n": 2238,
      "ject_": 2239,
      "self.assertTrue": 2240,
      "long": 2241,
      "SS": 2242,
      "API": 2243,
      "Type.": 2244,
      "Qu": 2245,
      "(c": 2246,
      "yte": 2247,
      "datetime.": 2248,
      "\\x8": 2249,
      "schema": 2250,
      "local_": 2251,
      "data)\n": 2252,
      "False,\n": 2253,
      "aly": 2254,
      "train_": 2255,
      " w": 2256,
      "goog": 2257,
      "\"])\n": 2258,
      "ter\n": 2259,
      "\":\"": 2260,
      "ss_": 2261,
      " \"": 2262,
      "it(": 2263,
      "field_": 2264,
      "ach": 2265,
      "sable": 2266,
      "Create": 2267,
      "event_": 2268,
      "t:\n": 2269,
      "<SCOPE_IN>def __init__(self, ": 2270,
      "i_": 2271,
      "callback": 2272,
      "route": 2273,
      "aa": 2274,
      "operation": 2275,
      "TypeError": 2276,
      "_config": 2277,
      "port_": 2278,
      "case": 2279,
      "(b": 2280,
      "ix": 2281,
      "ef": 2282,
      "TER": 2283,
      "Wid": 2284,
      "al.": 2285,
      "_to": 2286,
      "build": 2287,
      "Object": 2288,
      "Coun": 2289,
      "m, ": 2290,
      "forwar": 2291,
      "enumerate": 2292,
      "lan": 2293,
      "-1, ": 2294,
      "========": 2295,
      "name=": 2296,
      "3)\n": 2297,
      " '": 2298,
      "gu": 2299,
      "tocol": 2300,
      "fon": 2301,
      "side": 2302,
      "256": 2303,
      "Constraint(": 2304,
      "window": 2305,
      "padd": 2306,
      "s == ": 2307,
      "=True,\n": 2308,
      "AA": 2309,
      "inte": 2310,
      "return_value": 2311,
      "application": 2312,
      "s = [\n": 2313,
      "second": 2314,
      "make_": 2315,
      "C_": 2316,
      "own": 2317,
      "common": 2318,
      "K_": 2319,
      "http://": 2320,
      "role": 2321,
      "02')},\n": 2322,
      "\\u5e02')},\n": 2323,
      "DO": 2324,
      "lity": 2325,
      "print ": 2326,
      "<SCOPE_OUT>if not ": 2327,
      "21": 2328,
      "\",": 2329,
      "result.": 2330,
      "init_": 2331,
      "status_code": 2332,
      "__main": 2333,
      "compute": 2334,
      "e:\n": 2335,
      "App": 2336,
      "Hand": 2337,
      "Char": 2338,
      "name(": 2339,
      "text_": 2340,
      "56": 2341,
      ":: ": 2342,
      "memb": 2343,
      "Lay": 2344,
      "48": 2345,
      "sql": 2346,
      "record": 2347,
      "(2": 2348,
      ", _": 2349,
      "ense": 2350,
      "UP": 2351,
      " <= ": 2352,
      "<SCOPE_IN>if self.": 2353,
      "__main__": 2354,
      "break\n": 2355,
      "vm": 2356,
      "null": 2357,
      "Build": 2358,
      "'}": 2359,
      "[-1": 2360,
      "s__": 2361,
      "_statu": 2362,
      "\\u77": 2363,
      "Module": 2364,
      "dential": 2365,
      "s[0].": 2366,
      "value)\n": 2367,
      "dist": 2368,
      "s(\"": 2369,
      "c = ": 2370,
      "annot": 2371,
      "handle": 2372,
      "sequence": 2373,
      "rid": 2374,
      ") or ": 2375,
      "ular": 2376,
      "chunk": 2377,
      "t in ": 2378,
      "_get_": 2379,
      "}/": 2380,
      "of_": 2381,
      "cro": 2382,
      "array([": 2383,
      "sli": 2384,
      "trace": 2385,
      "entity": 2386,
      "utf": 2387,
      "text(": 2388,
      "find_": 2389,
      "log.": 2390,
      "LE_": 2391,
      "s,": 2392,
      "ops.": 2393,
      ", 7.": 2394,
      "VI": 2395,
      "%s\" % ": 2396,
      "as.": 2397,
      "list_": 2398,
      ") / ": 2399,
      "Vie": 2400,
      ", re": 2401,
      "-8": 2402,
      "Date": 2403,
      "0.00": 2404,
      "vation": 2405,
      "\\u7701": 2406,
      "%s' % ": 2407,
      "Invalid": 2408,
      "ome": 2409,
      "_input": 2410,
      "s]\n": 2411,
      "value, ": 2412,
      "VER": 2413,
      "<SCOPE_IN>print(\"": 2414,
      "\\u6": 2415,
      "al(": 2416,
      "fake": 2417,
      "self.__": 2418,
      "(self) -> ": 2419,
      "s\", ": 2420,
      "value\n": 2421,
      "[0].": 2422,
      "Arra": 2423,
      "ww": 2424,
      "A ": 2425,
      "stdo": 2426,
      "web": 2427,
      "data['": 2428,
      "): ": 2429,
      "tw": 2430,
      "v2": 2431,
      "igno": 2432,
      "m = ": 2433,
      "[0], ": 2434,
      "cry": 2435,
      "peri": 2436,
      "acce": 2437,
      " + '": 2438,
      "math": 2439,
      "lean": 2440,
      "Item": 2441,
      "%d": 2442,
      "visi": 2443,
      "write(": 2444,
      "director": 2445,
      "conf": 2446,
      "obj.": 2447,
      "                ": 2448,
      "track": 2449,
      "amoun": 2450,
      "self.assertRaise": 2451,
      "float32": 2452,
      "_call": 2453,
      "s to ": 2454,
      "wrap": 2455,
      "produ": 2456,
      "<SCOPE_IN>from ": 2457,
      "ded": 2458,
      "ED": 2459,
      "async def ": 2460,
      "object_": 2461,
      "pose": 2462,
      "o ": 2463,
      "f'": 2464,
      "=(": 2465,
      "76": 2466,
      "r = ": 2467,
      "password": 2468,
      "util.": 2469,
      "ner": 2470,
      "fields.": 2471,
      "raw_": 2472,
      "SP": 2473,
      "image_": 2474,
      "yiel": 2475,
      "ation ": 2476,
      "TestCase": 2477,
      "pipeline": 2478,
      "mark.": 2479,
      "hi": 2480,
      "coord": 2481,
      "propertie": 2482,
      "id)\n": 2483,
      "types.": 2484,
      "ation.": 2485,
      "cmd": 2486,
      "s-": 2487,
      "_pa": 2488,
      "y\n": 2489,
      "whe": 2490,
      "stride": 2491,
      "ping": 2492,
      "ill ": 2493,
      "0]\n": 2494,
      "k.": 2495,
      "__(self, ": 2496,
      "count_": 2497,
      "ult(": 2498,
      "Size": 2499,
      "object):\n": 2500,
      "QU": 2501,
      "nection": 2502,
      "patch": 2503,
      "=[": 2504,
      "cast": 2505,
      "pad": 2506,
      "perty": 2507,
      "child": 2508,
      "array_": 2509,
      "process.": 2510,
      "that ": 2511,
      "not in ": 2512,
      "_inter": 2513,
      "Net": 2514,
      "ctx.": 2515,
      "igration": 2516,
      "error_": 2517,
      "; ": 2518,
      "ick": 2519,
      "0), (": 2520,
      "system": 2521,
      "Integer": 2522,
      "send_": 2523,
      "namespace": 2524,
      "46": 2525,
      "LOG": 2526,
      "not_": 2527,
      "float(": 2528,
      "path, ": 2529,
      "non": 2530,
      "Service": 2531,
      "URL": 2532,
      "current": 2533,
      "Attri": 2534,
      "3\n": 2535,
      "tick": 2536,
      "thresh": 2537,
      "c, ": 2538,
      "sal": 2539,
      "decode": 2540,
      "total_": 2541,
      "]]": 2542,
      "\\x1": 2543,
      "argument": 2544,
      "weigh": 2545,
      "\"],\n": 2546,
      ": {": 2547,
      "Fe": 2548,
      "sin": 2549,
      "CE": 2550,
      "fill": 2551,
      ".join(": 2552,
      "2,\n": 2553,
      "storage": 2554,
      "per_": 2555,
      "max(": 2556,
      ".get('": 2557,
      "Mock": 2558,
      "es ": 2559,
      "point_": 2560,
      "base_": 2561,
      "2 ": 2562,
      "Parameter": 2563,
      "ard_": 2564,
      "ailable": 2565,
      "yield ": 2566,
      "if len(": 2567,
      "comment": 2568,
      "use_": 2569,
      "parse_": 2570,
      "SO": 2571,
      "PT": 2572,
      "es": 2573,
      "ou ": 2574,
      "unique": 2575,
      "iti": 2576,
      "eq": 2577,
      "clean": 2578,
      "\" in ": 2579,
      "yle": 2580,
      "fini": 2581,
      "SH": 2582,
      "s += ": 2583,
      "_star": 2584,
      "(),\n": 2585,
      "ST_": 2586,
      "y)\n": 2587,
      "\\x0": 2588,
      "compile": 2589,
      "mini": 2590,
      "nown": 2591,
      "zeros(": 2592,
      "pytest.mark.": 2593,
      "FAUL": 2594,
      "int, ": 2595,
      "****": 2596,
      "is None:\n": 2597,
      "grid": 2598,
      "DEFAUL": 2599,
      "ult ": 2600,
      "by ": 2601,
      "df.": 2602,
      "mock_": 2603,
      "Attribute": 2604,
      "min_": 2605,
      "7.8": 2606,
      "Temp": 2607,
      "plu": 2608,
      "| ": 2609,
      "ell": 2610,
      "ve ": 2611,
      "gram": 2612,
      "section": 2613,
      "57": 2614,
      "False)\n": 2615,
      "np": 2616,
      "As": 2617,
      "Client": 2618,
      "', [": 2619,
      "edi": 2620,
      "are ": 2621,
      "generate": 2622,
      "Max": 2623,
      "Reg": 2624,
      "Protocol": 2625,
      "id\": ": 2626,
      "id=": 2627,
      "positor": 2628,
      "reshape": 2629,
      "zone": 2630,
      "er\n": 2631,
      "md": 2632,
      "DB": 2633,
      "31": 2634,
      "repo": 2635,
      "game": 2636,
      "enden": 2637,
      "scope": 2638,
      "xy": 2639,
      "d to ": 2640,
      "]))\n": 2641,
      "Oper": 2642,
      "<SCOPE_IN>continue\n": 2643,
      "HTT": 2644,
      "content_": 2645,
      "True, ": 2646,
      "leep": 2647,
      "vector": 2648,
      "IP": 2649,
      "] = None,\n": 2650,
      "handler": 2651,
      "mast": 2652,
      "items():\n": 2653,
      "region": 2654,
      "mu": 2655,
      "k, ": 2656,
      "random": 2657,
      "staticmethod\n": 2658,
      "': {\n": 2659,
      " + \"": 2660,
      "ERR": 2661,
      "_str": 2662,
      "0),\n": 2663,
      "0,\t\t0,\t\t": 2664,
      "Auth": 2665,
      "SCRI": 2666,
      "st.": 2667,
      "sf": 2668,
      "ted(": 2669,
      "lig": 2670,
      "stdout": 2671,
      "hy": 2672,
      "user_id": 2673,
      " = os.path.join(": 2674,
      ") as f": 2675,
      "manag": 2676,
      "alpha": 2677,
      "chain": 2678,
      "mension": 2679,
      "matrix": 2680,
      "This ": 2681,
      "On": 2682,
      "initialize": 2683,
      "info(\"": 2684,
      "s_f": 2685,
      "atta": 2686,
      "ic_": 2687,
      "hook": 2688,
      "(_": 2689,
      " = {}\n": 2690,
      ".shape": 2691,
      "settings.": 2692,
      "noti": 2693,
      "Fun": 2694,
      "': \"": 2695,
      "S.": 2696,
      "olution": 2697,
      "IL": 2698,
      "{} ": 2699,
      "Valid": 2700,
      ", [": 2701,
      "<SCOPE_IN>\"\"\"": 2702,
      "pas": 2703,
      "uture": 2704,
      "MB": 2705,
      "helper": 2706,
      "roun": 2707,
      "at_": 2708,
      "F_": 2709,
      "subscription": 2710,
      "View": 2711,
      "ution": 2712,
      "s=(": 2713,
      "__(self):\n": 2714,
      "modi": 2715,
      "plat": 2716,
      "t=": 2717,
      ": 8, ": 2718,
      "MS": 2719,
      "uri": 2720,
      "sim": 2721,
      "engine": 2722,
      "len(self.": 2723,
      "5, 1": 2724,
      "ATH": 2725,
      "summar": 2726,
      "anti": 2727,
      "default=": 2728,
      "STR": 2729,
      "rout": 2730,
      "repr": 2731,
      "verage": 2732,
      "marke": 2733,
      "PRO": 2734,
      "_instance": 2735,
      "VAL": 2736,
      "vate": 2737,
      "cri": 2738,
      "mod": 2739,
      "help=\"": 2740,
      "'-": 2741,
      "python": 2742,
      "must be ": 2743,
      "Meta": 2744,
      "enumerate(": 2745,
      "transp": 2746,
      " of the ": 2747,
      "ant_": 2748,
      "az": 2749,
      "s())\n": 2750,
      "gres": 2751,
      "ride": 2752,
      "Event": 2753,
      "ary_": 2754,
      "ranch": 2755,
      " += 1\n": 2756,
      "name,\n": 2757,
      "find": 2758,
      "_name)\n": 2759,
      "mda": 2760,
      "turn": 2761,
      "Ge": 2762,
      ") if ": 2763,
      "arti": 2764,
      "97": 2765,
      "layer_": 2766,
      "time_": 2767,
      "k_": 2768,
      "log_": 2769,
      "core.": 2770,
      "encoding": 2771,
      "default_value": 2772,
      "s=[\n": 2773,
      "txt": 2774,
      "2,": 2775,
      "object(": 2776,
      " as e:\n": 2777,
      "fore": 2778,
      "quo": 2779,
      "v.": 2780,
      "DIR": 2781,
      "96": 2782,
      "allo": 2783,
      "max_length": 2784,
      "context.": 2785,
      "f = ": 2786,
      "<SCOPE_OUT>if self.": 2787,
      "ason": 2788,
      "options.": 2789,
      "book": 2790,
      "Le": 2791,
      "itch": 2792,
      "p, ": 2793,
      "\\x6": 2794,
      " S": 2795,
      "return self._": 2796,
      "LU": 2797,
      "_scope": 2798,
      "s = {\n": 2799,
      "configuration": 2800,
      "s = np.": 2801,
      "s=None, ": 2802,
      "\").": 2803,
      "All": 2804,
      "sleep": 2805,
      "cimal": 2806,
      "licy": 2807,
      "keep": 2808,
      "padding": 2809,
      "58": 2810,
      "choice": 2811,
      "exc": 2812,
      "54": 2813,
      "s:": 2814,
      "*\n": 2815,
      "bot": 2816,
      "1/": 2817,
      " - 0.42": 2818,
      "gdat": 2819,
      "path)\n": 2820,
      "startswith": 2821,
      "OP": 2822,
      "id = ": 2823,
      "ENT": 2824,
      ".com/": 2825,
      "(self._": 2826,
      "available": 2827,
      "model = ": 2828,
      "response = ": 2829,
      "from .": 2830,
      "ded_": 2831,
      "faile": 2832,
      "]['": 2833,
      "s and ": 2834,
      "Version": 2835,
      ")).": 2836,
      "database": 2837,
      "[3": 2838,
      "\\x01": 2839,
      "loss_": 2840,
      "year": 2841,
      "fg": 2842,
      "p = ": 2843,
      "payload": 2844,
      "Instance": 2845,
      "validate": 2846,
      "required": 2847,
      "Label": 2848,
      "), (2": 2849,
      " /": 2850,
      "numb": 2851,
      "BU": 2852,
      "after": 2853,
      "(0, ": 2854,
      "rand": 2855,
      "x\n": 2856,
      "std": 2857,
      "Win": 2858,
      "s(self.": 2859,
      "classmethod\n": 2860,
      "TION": 2861,
      "lish": 2862,
      "mib": 2863,
      "component": 2864,
      ": int = ": 2865,
      "scriptor.": 2866,
      "dn": 2867,
      "ator.": 2868,
      "Block": 2869,
      "count ": 2870,
      "5)\n": 2871,
      "diff": 2872,
      "result_": 2873,
      "install": 2874,
      "s), ": 2875,
      "Clas": 2876,
      "<SCOPE_IN>return\n": 2877,
      "6, 1": 2878,
      "cn": 2879,
      "radi": 2880,
      "roll": 2881,
      "net_": 2882,
      "74": 2883,
      "selec": 2884,
      "_man": 2885,
      "empty": 2886,
      "(re": 2887,
      "EL": 2888,
      "angle": 2889,
      "<SCOPE_OUT>with ": 2890,
      "lon": 2891,
      "(x, ": 2892,
      "_id)\n": 2893,
      "128": 2894,
      "Builder.": 2895,
      "None):\n": 2896,
      ") != ": 2897,
      "CC": 2898,
      "AV": 2899,
      "v, ": 2900,
      "Fil": 2901,
      "f, ": 2902,
      "'''\n": 2903,
      "high": 2904,
      "],": 2905,
      "like": 2906,
      " = tf.": 2907,
      "define": 2908,
      "calle": 2909,
      "righ": 2910,
      "s + ": 2911,
      ", self).__init__": 2912,
      "username": 2913,
      "cls, ": 2914,
      "=1, ": 2915,
      "x in ": 2916,
      "<SCOPE_IN>return self._": 2917,
      "Pri": 2918,
      "reen": 2919,
      "nan": 2920,
      "n, ": 2921,
      " - 7.8": 2922,
      "lr": 2923,
      "blank": 2924,
      "STAT": 2925,
      "('/": 2926,
      "FO": 2927,
      "Ho": 2928,
      "Result": 2929,
      "S ": 2930,
      "print_": 2931,
      "Code": 2932,
      "raises(": 2933,
      "request, ": 2934,
      "iso": 2935,
      "try_": 2936,
      "? ": 2937,
      "arr": 2938,
      "django.db.": 2939,
      "curity": 2940,
      "0-": 2941,
      "my_": 2942,
      "<SCOPE_OUT><SCOPE_OUT>def test_": 2943,
      "Parser": 2944,
      "file=": 2945,
      "EV": 2946,
      "_spec": 2947,
      "ji": 2948,
      "78": 2949,
      "_C": 2950,
      "py_": 2951,
      "r'": 2952,
      ",  ": 2953,
      "boxe": 2954,
      "plot": 2955,
      "read_": 2956,
      "<SCOPE_OUT>except Exception": 2957,
      "DEFAULT_": 2958,
      "dd": 2959,
      "[:, ": 2960,
      "tf": 2961,
      "db_": 2962,
      " + 1": 2963,
      "mibBuilder.": 2964,
      ":]\n": 2965,
      "DESCRI": 2966,
      " = int(": 2967,
      "ter(": 2968,
      "<SCOPE_IN>_": 2969,
      "Addres": 2970,
      " = torch.": 2971,
      "': ('": 2972,
      "Union": 2973,
      "False, ": 2974,
      ") -> None:\n": 2975,
      "', u'": 2976,
      " = [\n": 2977,
      "self.assertTrue(": 2978,
      "rot": 2979,
      "typ": 2980,
      "cluster": 2981,
      "argv": 2982,
      "_string": 2983,
      "_reg": 2984,
      "sm": 2985,
      "_name = ": 2986,
      "query_": 2987,
      "self.assertRaises(": 2988,
      "foun": 2989,
      "agg": 2990,
      "aw": 2991,
      "class__": 2992,
      "key': '": 2993,
      "cpu": 2994,
      "9999": 2995,
      ".set_": 2996,
      "3_": 2997,
      "7,": 2998,
      "indice": 2999,
      "disable": 3000,
      "pulumi.Input": 3001,
      "desc": 3002,
      "_mask": 3003,
      "ay": 3004,
      "seed": 3005,
      "verif": 3006,
      "cie": 3007,
      "kwargs.pop": 3008,
      "]),\n": 3009,
      "lay_": 3010,
      "_dim": 3011,
      "AM": 3012,
      "[1]\n": 3013,
      "_pri": 3014,
      "part": 3015,
      "account": 3016,
      ".objects.": 3017,
      "uint": 3018,
      "redu": 3019,
      "=False):\n": 3020,
      "stand": 3021,
      "stder": 3022,
      "na": 3023,
      "_sy": 3024,
      "limi": 3025,
      "form_": 3026,
      "00000000": 3027,
      "s_to_": 3028,
      "Task": 3029,
      "Be": 3030,
      " file": 3031,
      "real": 3032,
      "cursor": 3033,
      "Of": 3034,
      "annotation": 3035,
      "type_": 3036,
      "rep": 3037,
      "flu": 3038,
      "tz": 3039,
      "s = None\n": 3040,
      "::": 3041,
      "word_": 3042,
      "counter": 3043,
      "lot": 3044,
      "remote": 3045,
      "s()": 3046,
      "Number": 3047,
      "_id = ": 3048,
      "Proces": 3049,
      "Sequence": 3050,
      "101": 3051,
      "home": 3052,
      "plan": 3053,
      "round": 3054,
      "exists(": 3055,
      "cp": 3056,
      "_proces": 3057,
      "best": 3058,
      "(i": 3059,
      "x)\n": 3060,
      "ink": 3061,
      "language": 3062,
      "<SCOPE_IN>return False\n": 3063,
      "form.": 3064,
      "project_": 3065,
      "classi": 3066,
      "url, ": 3067,
      "dataset_": 3068,
      "s) == ": 3069,
      "serie": 3070,
      "cons": 3071,
      "<SCOPE_IN>par": 3072,
      "inser": 3073,
      "qui": 3074,
      "serialized_": 3075,
      "evalu": 3076,
      "city": 3077,
      ", 1.": 3078,
      "cfg": 3079,
      "T ": 3080,
      "contri": 3081,
      "mented": 3082,
      "style": 3083,
      "(1, ": 3084,
      "dr": 3085,
      "s=['": 3086,
      "{}\".format(": 3087,
      "_cache": 3088,
      "force": 3089,
      "None and ": 3090,
      "e_": 3091,
      "git": 3092,
      "_type=": 3093,
      "Tag": 3094,
      "handl": 3095,
      "user.": 3096,
      "-2": 3097,
      "login": 3098,
      "count(": 3099,
      "utf-8": 3100,
      "django.db.models.": 3101,
      ", S": 3102,
      "** ": 3103,
      "FL": 3104,
      "{0}": 3105,
      "ategor": 3106,
      "getattr(": 3107,
      "\"--": 3108,
      "ve_": 3109,
      "process_": 3110,
      "42": 3111,
      "prop": 3112,
      "Trans": 3113,
      ".split(": 3114,
      "should ": 3115,
      "resource_group": 3116,
      "size=": 3117,
      "Imp": 3118,
      "Multi": 3119,
      "reverse": 3120,
      "GET": 3121,
      "htt": 3122,
      "_type=None, ": 3123,
      "detail": 3124,
      " a ": 3125,
      "b, ": 3126,
      "chil": 3127,
      "extend(": 3128,
      "IG": 3129,
      "gate": 3130,
      "s_by_": 3131,
      "iss": 3132,
      "loadText": 3133,
      "vol": 3134,
      "mibBuilder.loadText": 3135,
      "mibBuilder.loadTexts: ": 3136,
      "0.0": 3137,
      " with ": 3138,
      "[0])\n": 3139,
      ".patch": 3140,
      "sum(": 3141,
      "boo": 3142,
      "lug": 3143,
      "FOR": 3144,
      "look": 3145,
      "drop": 3146,
      "filter(": 3147,
      "nd": 3148,
      "x: ": 3149,
      "\"][\"": 3150,
      "csv": 3151,
      "<SCOPE_OUT>try:\n": 3152,
      "if mibBuilder.loadTexts: ": 3153,
      "])": 3154,
      "ithub": 3155,
      "se_": 3156,
      "a = ": 3157,
      "sent": 3158,
      "95": 3159,
      "imple": 3160,
      "runn": 3161,
      "_descriptor.": 3162,
      "cision": 3163,
      "merge": 3164,
      "split": 3165,
      "flat": 3166,
      "s_list": 3167,
      "ization": 3168,
      "resol": 3169,
      "text = ": 3170,
      "d:\n": 3171,
      "Descriptor": 3172,
      "event.": 3173,
      "Spec": 3174,
      "future": 3175,
      "rati": 3176,
      "DataFrame": 3177,
      "order_": 3178,
      "_length": 3179,
      "3,\n": 3180,
      "axis": 3181,
      ".format(\n": 3182,
      "3), (": 3183,
      "car": 3184,
      "usto": 3185,
      "ceive": 3186,
      "9.": 3187,
      "py.": 3188,
      "data=": 3189,
      "plugin": 3190,
      "hex": 3191,
      "pass\n": 3192,
      "From": 3193,
      "self,\n": 3194,
      "virt": 3195,
      "s for ": 3196,
      "Param": 3197,
      "out ": 3198,
      "####": 3199,
      "3-": 3200,
      "arm": 3201,
      "dt": 3202,
      "bas": 3203,
      "KEY": 3204,
      "cul": 3205,
      "ct.": 3206,
      " = os.path.": 3207,
      "control": 3208,
      "<SCOPE_OUT><SCOPE_OUT><SCOPE_OUT>def ": 3209,
      "profile": 3210,
      "specifi": 3211,
      "] + ": 3212,
      ") in ": 3213,
      "50": 3214,
      "b\"": 3215,
      "mock.patch": 3216,
      "no_": 3217,
      "\"], ": 3218,
      "def get_": 3219,
      "cted": 3220,
      "span": 3221,
      "unittest.": 3222,
      "spf": 3223,
      "_sche": 3224,
      "lation": 3225,
      "_ref": 3226,
      "HO": 3227,
      "-0.": 3228,
      "202": 3229,
      "ich": 3230,
      "\\n\"\n": 3231,
      "disk": 3232,
      ") as f:\n": 3233,
      "b = ": 3234,
      " = self.get_": 3235,
      "_read": 3236,
      "ort_": 3237,
      "note": 3238,
      "map_": 3239,
      "matche": 3240,
      "snap": 3241,
      "Mat": 3242,
      "children": 3243,
      "beta": 3244,
      "team": 3245,
      "sync": 3246,
      "n = ": 3247,
      "cfg.": 3248,
      "ateg": 3249,
      "_point": 3250,
      "click": 3251,
      "<SCOPE_OUT><SCOPE_OUT>elif ": 3252,
      "str, ": 3253,
      ".get(": 3254,
      "7, 1": 3255,
      "1}": 3256,
      "Norm": 3257,
      "download": 3258,
      "depth": 3259,
      "constant": 3260,
      "_by_": 3261,
      "cir": 3262,
      "With": 3263,
      "Server": 3264,
      "folder": 3265,
      "Acces": 3266,
      "fl": 3267,
      ".close": 3268,
      " = C": 3269,
      "pair": 3270,
      "ide": 3271,
      "os.environ": 3272,
      "value = ": 3273,
      "_batch": 3274,
      "Bin": 3275,
      "pd.": 3276,
      "assert_equal(": 3277,
      "Property": 3278,
      "<SCOPE_OUT><SCOPE_OUT><SCOPE_OUT>": 3279,
      "gg": 3280,
      "=1,\n": 3281,
      "root_": 3282,
      "2:\n": 3283,
      "Token": 3284,
      "UB": 3285,
      "global": 3286,
      "+\n": 3287,
      "abi": 3288,
      "Call": 3289,
      "fla": 3290,
      "LOC": 3291,
      "PTOR": 3292,
      "valid_": 3293,
      "time.time": 3294,
      "ar_": 3295,
      "send": 3296,
      "DESCRIPTOR": 3297,
      "']:\n": 3298,
      "s[:": 3299,
      "98": 3300,
      "ternal": 3301,
      "Update": 3302,
      "68": 3303,
      "(r'": 3304,
      "` ": 3305,
      "Order": 3306,
      "3, 0.07692307692307693, 0.07692307692307693, 0.07692307692307693, 0.0769230769230769": 3307,
      "gpu": 3308,
      "(m": 3309,
      "dot_": 3310,
      "Action": 3311,
      "Imple": 3312,
      "script": 3313,
      "result\n": 3314,
      "she": 3315,
      "If ": 3316,
      "has ": 3317,
      "ing\n": 3318,
      "way": 3319,
      "void ": 3320,
      "condition": 3321,
      "del ": 3322,
      "Error, ": 3323,
      "ware": 3324,
      "s the ": 3325,
      "amp": 3326,
      "walle": 3327,
      "shif": 3328,
      "Read": 3329,
      ", 1)\n": 3330,
      "Wor": 3331,
      "We": 3332,
      "_v": 3333,
      "4)\n": 3334,
      "context, ": 3335,
      "TestCase):\n": 3336,
      "let": 3337,
      "if isinstance(": 3338,
      ".name": 3339,
      "\": {\n": 3340,
      "slice": 3341,
      "dis": 3342,
      "astype": 3343,
      "www.": 3344,
      "Sche": 3345,
      "End": 3346,
      "[]\n": 3347,
      "Vari": 3348,
      "vider": 3349,
      "Format": 3350,
      "<SCOPE_IN>print('": 3351,
      "D ": 3352,
      "y:\n": 3353,
      "1), (": 3354,
      "(t": 3355,
      "value):\n": 3356,
      "sof": 3357,
      "\"/": 3358,
      "2), (": 3359,
      "Cur": 3360,
      "dict_": 3361,
      "Tex": 3362,
      "ATE": 3363,
      "_idx": 3364,
      "tention": 3365,
      "3,3,": 3366,
      "df_": 3367,
      "wait_": 3368,
      ":00": 3369,
      "assert len(": 3370,
      "\\x12": 3371,
      "suf": 3372,
      ".__": 3373,
      "_h": 3374,
      "dependen": 3375,
      "s=None,\n": 3376,
      "\\\"": 3377,
      "dir(": 3378,
      "CP": 3379,
      "_byte": 3380,
      "255": 3381,
      "dou": 3382,
      "Return": 3383,
      "HE": 3384,
      "leg": 3385,
      "\"><": 3386,
      "': self.": 3387,
      "Connection": 3388,
      "coder": 3389,
      "execut": 3390,
      "Gener": 3391,
      "HTTP": 3392,
      "sorted(": 3393,
      "res = ": 3394,
      "hasattr(": 3395,
      "sd": 3396,
      "_format": 3397,
      "center": 3398,
      "out.": 3399,
      "300": 3400,
      "Star": 3401,
      "CE_": 3402,
      "text.": 3403,
      "axe": 3404,
      "s': '": 3405,
      "bution": 3406,
      "'/": 3407,
      "data\n": 3408,
      "bias": 3409,
      "s/{": 3410,
      "<SCOPE_OUT>@staticmethod\n": 3411,
      "Setting": 3412,
      "BO": 3413,
      "voca": 3414,
      "yam": 3415,
      "dete": 3416,
      "Exp": 3417,
      "ing_type": 3418,
      "store_": 3419,
      "inf": 3420,
      "br": 3421,
      "<SCOPE_IN>logger.": 3422,
      "_path, ": 3423,
      "config_": 3424,
      "4e": 3425,
      "      ": 3426,
      "(f\"": 3427,
      "bro": 3428,
      "ple": 3429,
      "libr": 3430,
      "+1": 3431,
      "_prefix": 3432,
      "ATION": 3433,
      "topic": 3434,
      "acc": 3435,
      "../": 3436,
      "<SCOPE_IN>re": 3437,
      "Window": 3438,
      "shape, ": 3439,
      "pattern": 3440,
      "Back": 3441,
      "y=": 3442,
      "convert_": 3443,
      "ssion": 3444,
      "id,\n": 3445,
      "google": 3446,
      "1,\t\t": 3447,
      "gex": 3448,
      "pertie": 3449,
      " = M": 3450,
      "member": 3451,
      "& ": 3452,
      "ip_": 3453,
      "ek": 3454,
      "line_": 3455,
      "pow": 3456,
      "XX": 3457,
      "do_": 3458,
      "'.join(": 3459,
      "<SCOPE_IN>raise ValueError(\"": 3460,
      "index=": 3461,
      ".\")\n": 3462,
      "get ": 3463,
      "one_": 3464,
      "<SCOPE_IN>result": 3465,
      " = (\n": 3466,
      "optimizer": 3467,
      "tax": 3468,
      "Error(\"": 3469,
      "t(self, ": 3470,
      "CA": 3471,
      "500": 3472,
      "SION": 3473,
      "align": 3474,
      "dp": 3475,
      "op.": 3476,
      "ose": 3477,
      "init": 3478,
      ")*": 3479,
      "idd": 3480,
      "parser.add_argument('--": 3481,
      "[[": 3482,
      "id\n": 3483,
      "node_": 3484,
      "def __init__(self):\n": 3485,
      "Network": 3486,
      "concat": 3487,
      "writer": 3488,
      " = 1\n": 3489,
      "=0)\n": 3490,
      "GE": 3491,
      "-01": 3492,
      "args, ": 3493,
      "[str, ": 3494,
      "s'\n": 3495,
      "count = ": 3496,
      "[i]": 3497,
      "0))\n": 3498,
      "sist": 3499,
      "Defa": 3500,
      "TYPE_": 3501,
      "exclude": 3502,
      "ERROR": 3503,
      "ML": 3504,
      "cpp": 3505,
      "some": 3506,
      "ual_": 3507,
      "alance": 3508,
      ")), ": 3509,
      "3, 6": 3510,
      "     ": 3511,
      "d == ": 3512,
      "ctive": 3513,
      "flow.": 3514,
      "cent": 3515,
      "0), ": 3516,
      "Qt": 3517,
      "Seri": 3518,
      "Implemented": 3519,
      "import o": 3520,
      ".is_": 3521,
      "atche": 3522,
      "term": 3523,
      "{}'.format(": 3524,
      "django.db.models.fields.": 3525,
      "primar": 3526,
      "ni": 3527,
      "tl": 3528,
      "Tuple": 3529,
      "lower(": 3530,
      "poll": 3531,
      "s = ['": 3532,
      "prediction": 3533,
      "com/": 3534,
      "_source": 3535,
      "feat": 3536,
      "<SCOPE_IN>if isinstance(": 3537,
      "(a": 3538,
      "<SCOPE_OUT>except:\n": 3539,
      ", 0.": 3540,
      "selector": 3541,
      "cb": 3542,
      "clou": 3543,
      "Session": 3544,
      "fixture": 3545,
      "quote": 3546,
      "Ru": 3547,
      "SIZ": 3548,
      "os_": 3549,
      "(S": 3550,
      "NotImplemented": 3551,
      "(?": 3552,
      "0):\n": 3553,
      "socke": 3554,
      "cryp": 3555,
      "/m": 3556,
      "rol": 3557,
      "warn": 3558,
      "play": 3559,
      "simple": 3560,
      "N_": 3561,
      "AI": 3562,
      "Runtime": 3563,
      "t(\n": 3564,
      "<SCOPE_OUT><SCOPE_OUT>excep": 3565,
      "signe": 3566,
      "Map": 3567,
      "\\x7": 3568,
      "error(": 3569,
      "Descriptor(\n": 3570,
      "ven": 3571,
      "sqr": 3572,
      "parent_": 3573,
      "cv2.": 3574,
      "(object):\n": 3575,
      "sl": 3576,
      "-4": 3577,
      "s, '": 3578,
      "type='": 3579,
      "s='": 3580,
      "trig": 3581,
      "permission": 3582,
      "_score": 3583,
      "', [], ": 3584,
      "cost": 3585,
      "backend": 3586,
      "xx": 3587,
      "gt_": 3588,
      "result, ": 3589,
      "can ": 3590,
      "ABLE": 3591,
      "ignore": 3592,
      "Content": 3593,
      "Source": 3594,
      "dimension": 3595,
      "s[0]\n": 3596,
      "m.c": 3597,
      "json.dump": 3598,
      "dul": 3599,
      "0.1": 3600,
      "_delete": 3601,
      "sample_": 3602,
      "[self.": 3603,
      "api_": 3604,
      "s.get_": 3605,
      "__name__ == '": 3606,
      "distri": 3607,
      "]+": 3608,
      "ssi": 3609,
      "List[": 3610,
      "ENT_": 3611,
      "_id=": 3612,
      "pn": 3613,
      "]):\n": 3614,
      "amil": 3615,
      "True:\n": 3616,
      "94": 3617,
      "JS": 3618,
      "*args, **kwargs):\n": 3619,
      "register_": 3620,
      "TYPE": 3621,
      "Template": 3622,
      "s\"\n": 3623,
      "corre": 3624,
      "Error(": 3625,
      "ipro": 3626,
      "__main__':\n": 3627,
      "END": 3628,
      "double": 3629,
      "# ": 3630,
      "Sh": 3631,
      "dict__": 3632,
      "oc": 3633,
      "self, \"": 3634,
      "deplo": 3635,
      ": bool": 3636,
      "Function": 3637,
      "['id": 3638,
      "normalize": 3639,
      "----------------": 3640,
      "_path)\n": 3641,
      ".close()\n": 3642,
      "TIME": 3643,
      "param ": 3644,
      " >= ": 3645,
      "index=\"": 3646,
      "<SCOPE_OUT>self._": 3647,
      "access_": 3648,
      "share": 3649,
      "interval": 3650,
      "<SCOPE_IN>print ": 3651,
      "Ht": 3652,
      "Graph": 3653,
      "fee": 3654,
      "stract": 3655,
      "Any": 3656,
      "Form": 3657,
      "(d": 3658,
      "GR": 3659,
      "params['": 3660,
      "() ": 3661,
      "Int": 3662,
      "pytest.raises(": 3663,
      "worker": 3664,
      "] = None\n": 3665,
      "Enum": 3666,
      "rc": 3667,
      "tab": 3668,
      "get.": 3669,
      "_sum": 3670,
      "data/": 3671,
      "parser.": 3672,
      "B_": 3673,
      "bor": 3674,
      "mag": 3675,
      "</void": 3676,
      "_client": 3677,
      "9, 1": 3678,
      "parame": 3679,
      "}\")\n": 3680,
      "Element(": 3681,
      "t('": 3682,
      "d-": 3683,
      "__name__ == '__main__':\n": 3684,
      "rm": 3685,
      "ife": 3686,
      "</byte>": 3687,
      "void index=\"": 3688,
      "\"><byte>": 3689,
      "</byte></void": 3690,
      "><void index=\"": 3691,
      "</byte></void><void index=\"": 3692,
      "only ": 3693,
      ", n": 3694,
      "\\s": 3695,
      "_client.": 3696,
      "_label": 3697,
      "data[": 3698,
      "cluster_": 3699,
      "ratio": 3700,
      "/v": 3701,
      "F.": 3702,
      "session.": 3703,
      "state.": 3704,
      "sleep(": 3705,
      "worl": 3706,
      "'name": 3707,
      "4\n": 3708,
      "_table": 3709,
      "OS": 3710,
      "map(": 3711,
      "s=\"": 3712,
      "Dist": 3713,
      "d(self, ": 3714,
      "set()\n": 3715,
      "github": 3716,
      "pli": 3717,
      "Array": 3718,
      "verti": 3719,
      "Constraint(expr": 3720,
      "r\"": 3721,
      "stic": 3722,
      "file(": 3723,
      "kwargs.pop('": 3724,
      "trize": 3725,
      "learn": 3726,
      "complete": 3727,
      "import os\n": 3728,
      "subprocess.": 3729,
      "Command": 3730,
      "Fore": 3731,
      "args = ": 3732,
      "div": 3733,
      "box_": 3734,
      "board": 3735,
      "type, ": 3736,
      ".')\n": 3737,
      "0_": 3738,
      "5\n": 3739,
      "protocol": 3740,
      "answ": 3741,
      "_device": 3742,
      "[1], ": 3743,
      "a-": 3744,
      "ql": 3745,
      "cam": 3746,
      "Exec": 3747,
      "iddle": 3748,
      "connect(": 3749,
      "Color": 3750,
      "v in ": 3751,
      "intern": 3752,
      "0, 0.": 3753,
      "serialize.": 3754,
      " in": 3755,
      "ft_": 3756,
      "ting ": 3757,
      "backup": 3758,
      "gh": 3759,
      "() == ": 3760,
      "save_": 3761,
      "json.load": 3762,
      "experi": 3763,
      "\\n\")\n": 3764,
      "<SCOPE_IN>return '": 3765,
      "Gu": 3766,
      "_name,\n": 3767,
      "(self)\n": 3768,
      "actual": 3769,
      "will ": 3770,
      "math.": 3771,
      "Mode": 3772,
      "alog": 3773,
      "pick": 3774,
      "mk": 3775,
      "our ": 3776,
      "cord": 3777,
      "s of ": 3778,
      "samp": 3779,
      "upper": 3780,
      "async": 3781,
      "', 'type': '": 3782,
      "gest": 3783,
      ">> ": 3784,
      "you ": 3785,
      "prox": 3786,
      "where": 3787,
      "u.": 3788,
      "_be": 3789,
      "\\n'\n": 3790,
      "have ": 3791,
      "endpoint": 3792,
      "1.0": 3793,
      "_pool": 3794,
      "custom": 3795,
      "all ": 3796,
      "Box": 3797,
      "nn": 3798,
      "config['": 3799,
      "lip": 3800,
      "security": 3801,
      "Error\n": 3802,
      "Manag": 3803,
      "<SCOPE_IN>f": 3804,
      "parametrize": 3805,
      "in=": 3806,
      "http_": 3807,
      "cores": 3808,
      "_dep": 3809,
      "Load": 3810,
      "rg": 3811,
      "random_": 3812,
      "       ": 3813,
      "no ": 3814,
      "numpy.": 3815,
      "WOR": 3816,
      "rh": 3817,
      " :: ": 3818,
      "IN_": 3819,
      "((1, ": 3820,
      "contrib.": 3821,
      "Rule": 3822,
      "owner": 3823,
      "attention": 3824,
      "name):\n": 3825,
      "for i in ": 3826,
      "eri": 3827,
      "mock.": 3828,
      "velo": 3829,
      "platform": 3830,
      "POST": 3831,
      "Flo": 3832,
      "dropo": 3833,
      "type ": 3834,
      "Filter": 3835,
      "s[2": 3836,
      "analy": 3837,
      "row_": 3838,
      "ACK": 3839,
      "draw": 3840,
      "', type=": 3841,
      ".replace": 3842,
      ".debug": 3843,
      " = S": 3844,
      "self.assert_": 3845,
      "dif": 3846,
      "izer": 3847,
      ".value": 3848,
      "HT": 3849,
      "found": 3850,
      "NU": 3851,
      "self.re": 3852,
      "model, ": 3853,
      "unicode": 3854,
      "lugin": 3855,
      "lack": 3856,
      "fact": 3857,
      "s']\n": 3858,
      "params.get(\"": 3859,
      "s.get(": 3860,
      "dag": 3861,
      "mas": 3862,
      "Change": 3863,
      "enc": 3864,
      "SER": 3865,
      "<SCOPE_IN>raise TypeError": 3866,
      "Description": 3867,
      "auth_": 3868,
      "3, 6, 1, ": 3869,
      "*m.b2": 3870,
      "Hel": 3871,
      "lambda x: ": 3872,
      "-1)\n": 3873,
      "ory_": 3874,
      "container": 3875,
      "ynam": 3876,
      "M ": 3877,
      " in enumerate(": 3878,
      "Variable": 3879,
      "other.": 3880,
      "', [], {'": 3881,
      "display": 3882,
      "os.path.exists(": 3883,
      "': {'key': '": 3884,
      "_1": 3885,
      "def _": 3886,
      "optimiz": 3887,
      "-bit": 3888,
      "Spe": 3889,
      "400": 3890,
      "conta": 3891,
      "Place": 3892,
      "istr": 3893,
      "controll": 3894,
      "attr(self, ": 3895,
      "{self.": 3896,
      "s.\n": 3897,
      "Output": 3898,
      "By": 3899,
      "PI": 3900,
      "_shape": 3901,
      "'): ": 3902,
      "ipeline": 3903,
      "pkg": 3904,
      "zip(": 3905,
      "FLAG": 3906,
      "ated_": 3907,
      "AL_": 3908,
      "return_": 3909,
      "write_": 3910,
      " == 0:\n": 3911,
      " = ''\n": 3912,
      "azure": 3913,
      "}}": 3914,
      "fast": 3915,
      "info('": 3916,
      "pytest.mark.parametrize": 3917,
      "reat": 3918,
      "stage": 3919,
      "s = self._": 3920,
      "file, ": 3921,
      "), '": 3922,
      "and(": 3923,
      ")])\n": 3924,
      "data[\"": 3925,
      "if (": 3926,
      "registr": 3927,
      "mt": 3928,
      "append('": 3929,
      "s_per_": 3930,
      "scan": 3931,
      "same": 3932,
      "atter": 3933,
      "neg": 3934,
      "Identi": 3935,
      "x ": 3936,
      "first_": 3937,
      "credential": 3938,
      "suffix": 3939,
      "import": 3940,
      "img_": 3941,
      "parent": 3942,
      "s. ": 3943,
      "identifier": 3944,
      " = {'": 3945,
      "base.": 3946,
      "3, 7.": 3947,
      "document": 3948,
      "if '": 3949,
      "Domain": 3950,
      "_id,\n": 3951,
      "arange": 3952,
      "shot": 3953,
      "polic": 3954,
      "32, ": 3955,
      "Ma": 3956,
      "INT": 3957,
      "quanti": 3958,
      "s\", \"": 3959,
      "short": 3960,
      "plor": 3961,
      "Contain": 3962,
      "containing_type": 3963,
      "' : ": 3964,
      "('h": 3965,
      "self.assertIs": 3966,
      "-bit``\n": 3967,
      "wd": 3968,
      "<SCOPE_IN>d": 3969,
      "message.": 3970,
      "font": 3971,
      "serializer": 3972,
      "show_": 3973,
      "Meth": 3974,
      "Found": 3975,
      "Scal": 3976,
      "'}),\n": 3977,
      "CI": 3978,
      "segment": 3979,
      "signature": 3980,
      "secret": 3981,
      "ET.": 3982,
      "xi": 3983,
      "mac": 3984,
      "audi": 3985,
      "distance": 3986,
      "_bin": 3987,
      "[key": 3988,
      "<SCOPE_IN>pro": 3989,
      "icro": 3990,
      "(-": 3991,
      ")/": 3992,
      "1, 7.": 3993,
      "context_": 3994,
      "custo": 3995,
      "dtype)\n": 3996,
      "src/": 3997,
      "Http": 3998,
      "price": 3999,
      "'}\n": 4000,
      "er()\n": 4001,
      "sqrt(": 4002,
      "_l": 4003,
      "anch": 4004,
      "deserialize": 4005,
      "0, 0, 0, 0, ": 4006,
      "self._serialize.": 4007,
      "Serie": 4008,
      "activation": 4009,
      "entrie": 4010,
      "\\x18": 4011,
      "lease ": 4012,
      "Open": 4013,
      "none": 4014,
      "training": 4015,
      "invalid": 4016,
      "dom": 4017,
      "bad": 4018,
      "v = ": 4019,
      "abs(": 4020,
      "view_": 4021,
      "3 = ": 4022,
      "and\n": 4023,
      " )\n": 4024,
      "disc": 4025,
      "cla": 4026,
      "setUp": 4027,
      "hw": 4028,
      "stderr": 4029,
      "global ": 4030,
      "val_": 4031,
      "Float": 4032,
      "account_": 4033,
      "_pb": 4034,
      "spath": 4035,
      "lookup": 4036,
      "coin": 4037,
      "Entry": 4038,
      "args)\n": 4039,
      "'), ('": 4040,
      "attach": 4041,
      "market": 4042,
      "_py": 4043,
      ", (": 4044,
      ", f": 4045,
      "Doc": 4046,
      "zz": 4047,
      "response.status_code": 4048,
      "which": 4049,
      "print": 4050,
      "air": 4051,
      "[:,": 4052,
      "': ('django.db.models.fields.": 4053,
      "sigma": 4054,
      "public": 4055,
      "IT": 4056,
      "<SCOPE_IN>break\n": 4057,
      "name = \"": 4058,
      "'t ": 4059,
      "dge": 4060,
      "CONFI": 4061,
      "mbed": 4062,
      "No ": 4063,
      "MM_": 4064,
      "ship": 4065,
      "from django.": 4066,
      "(x)\n": 4067,
      "las": 4068,
      "Sw": 4069,
      "month": 4070,
      " from ": 4071,
      ": \"ER_": 4072,
      "s).": 4073,
      "io.": 4074,
      "run(": 4075,
      "plot(": 4076,
      "_graph": 4077,
      "_count": 4078,
      "does ": 4079,
      "dict(\n": 4080,
      "Dataset": 4081,
      "Button": 4082,
      "sur": 4083,
      "thon ": 4084,
      "NS": 4085,
      "ene": 4086,
      "render": 4087,
      "Pol": 4088,
      "vocab": 4089,
      "cuda": 4090,
      ", 'str": 4091,
      "PATH": 4092,
      "bucket": 4093,
      "itor": 4094,
      "<SCOPE_IN>return None\n": 4095,
      "CL": 4096,
      "[k": 4097,
      "Unit": 4098,
      "_path = ": 4099,
      "msg)\n": 4100,
      "CS": 4101,
      "inden": 4102,
      "full_name='": 4103,
      "identity": 4104,
      "pc": 4105,
      ":param ": 4106,
      "Auto": 4107,
      "_gener": 4108,
      ".S": 4109,
      "termin": 4110,
      "_page": 4111,
      "_indi": 4112,
      "Element": 4113,
      "t == ": 4114,
      "logit": 4115,
      "Iter": 4116,
      "migration": 4117,
      "\\x4": 4118,
      "Pool": 4119,
      "manage": 4120,
      "<SCOPE_IN>raise Exception": 4121,
      "wait": 4122,
      "ger(": 4123,
      " = models.": 4124,
      "t(self):\n": 4125,
      "Bax": 4126,
      "dele": 4127,
      "use ": 4128,
      "sx": 4129,
      "ssl": 4130,
      "command_": 4131,
      "_pr": 4132,
      "validate_": 4133,
      "((1, 3, 6, 1, ": 4134,
      "] == ": 4135,
      "json_": 4136,
      "configure": 4137,
      ": Optional[str": 4138,
      "max_length=": 4139,
      "opro": 4140,
      "<SCOPE_OUT><SCOPE_OUT>except ": 4141,
      "<SCOPE_OUT>@classmethod\n": 4142,
      "64-bit``\n": 4143,
      "exit(": 4144,
      "structure": 4145,
      "mul": 4146,
      "'] = '": 4147,
      "size, ": 4148,
      "weight_": 4149,
      "53": 4150,
      "server_": 4151,
      "fol": 4152,
      "allow": 4153,
      "s_to": 4154,
      "relate": 4155,
      "?????": 4156,
      "ridge": 4157,
      "button": 4158,
      "file)\n": 4159,
      "upload": 4160,
      "if_": 4161,
      "')),\n": 4162,
      "=0, ": 4163,
      "ave": 4164,
      "left": 4165,
      "out = ": 4166,
      "Constraint(expr= ": 4167,
      "line.": 4168,
      "clone": 4169,
      "y as ": 4170,
      "Model):\n": 4171,
      "AUT": 4172,
      "containing_type=None,\n": 4173,
      "er)\n": 4174,
      "0, '": 4175,
      "/32": 4176,
      ".get": 4177,
      "Range": 4178,
      "nes": 4179,
      "Point": 4180,
      "MODE": 4181,
      "colle": 4182,
      "Quer": 4183,
      "_t": 4184,
      "Com": 4185,
      "struction": 4186,
      "_cur": 4187,
      "with open(": 4188,
      "redential": 4189,
      "scribe": 4190,
      "asynci": 4191,
      "10.": 4192,
      "rl": 4193,
      "ackage": 4194,
      "_user": 4195,
      "_sub": 4196,
      "_type, ": 4197,
      "slug": 4198,
      "screen": 4199,
      "FILE": 4200,
      "Argument": 4201,
      "min(": 4202,
      "]]\n": 4203,
      "ped_": 4204,
      "src_": 4205,
      "War": 4206,
      ".0": 4207,
      "contra": 4208,
      "AND": 4209,
      "AY": 4210,
      "sys.argv": 4211,
      "wise": 4212,
      "Interface": 4213,
      "bucke": 4214,
      "1, 2, ": 4215,
      "curac": 4216,
      "Device": 4217,
      "Status('": 4218,
      "\\u7701\\u": 4219,
      "64, ": 4220,
      "Dic": 4221,
      "<SCOPE_IN>os.": 4222,
      "next": 4223,
      ", 1, 1": 4224,
      "_initi": 4225,
      "Su": 4226,
      "X, ": 4227,
      ") < ": 4228,
      "amma": 4229,
      "common.": 4230,
      "\"p": 4231,
      "_size=": 4232,
      "_from_": 4233,
      "s([": 4234,
      "output ": 4235,
      "tic": 4236,
      "name\": \"": 4237,
      "\\n')\n": 4238,
      "dirname(": 4239,
      "constra": 4240,
      "_manag": 4241,
      "_detail": 4242,
      "bility": 4243,
      "(self,": 4244,
      " value": 4245,
      "System": 4246,
      "embedding": 4247,
      "\\x00\\x00\\x00\\x00": 4248,
      "Equal(": 4249,
      "gdat.": 4250,
      "ARE": 4251,
      "Te": 4252,
      "dm": 4253,
      "response = self.": 4254,
      "__class__": 4255,
      "AW": 4256,
      "to_dict(": 4257,
      "Down": 4258,
      "Wri": 4259,
      "does not ": 4260,
      "-9": 4261,
      "v1": 4262,
      "sity": 4263,
      "'b": 4264,
      "key)\n": 4265,
      "<SCOPE_IN>await ": 4266,
      "\\r": 4267,
      "alo": 4268,
      "0],\n": 4269,
      "accep": 4270,
      "execution": 4271,
      "ward": 4272,
      "<SCOPE_IN>import ": 4273,
      "ing import ": 4274,
      "tifi": 4275,
      "path = ": 4276,
      "ffe": 4277,
      "ate(": 4278,
      "f\"{": 4279,
      "f(": 4280,
      "Ab": 4281,
      "ing the ": 4282,
      "fra": 4283,
      "plot_": 4284,
      "fc": 4285,
      "nor": 4286,
      "71": 4287,
      "tile": 4288,
      "symp": 4289,
      "cover": 4290,
      "Handler": 4291,
      "Tar": 4292,
      "ffff": 4293,
      "E ": 4294,
      "PUT": 4295,
      "lim": 4296,
      "other_": 4297,
      "uff": 4298,
      " = pd.": 4299,
      "[4": 4300,
      "', None)\n": 4301,
      "Mix": 4302,
      "validation": 4303,
      "PS": 4304,
      "tools.": 4305,
      "serve": 4306,
      "default(": 4307,
      "``16": 4308,
      "name in ": 4309,
      "``16/32": 4310,
      "senten": 4311,
      "blob": 4312,
      "\"].": 4313,
      "Uni": 4314,
      "Mon": 4315,
      "viou": 4316,
      "zen": 4317,
      "cons_f": 4318,
      "<SCOPE_OUT><SCOPE_OUT><SCOPE_OUT><SCOPE_OUT>": 4319,
      "New": 4320,
      "CRE": 4321,
      "video": 4322,
      "traine": 4323,
      "output(": 4324,
      "operator": 4325,
      "called_": 4326,
      "source_": 4327,
      "iloc": 4328,
      "expi": 4329,
      "ner_": 4330,
      "all(": 4331,
      "Decimal": 4332,
      "[1])\n": 4333,
      "filename)\n": 4334,
      "agent": 4335,
      "ination": 4336,
      "_port": 4337,
      "\t\t],\n": 4338,
      "env.": 4339,
      " re": 4340,
      "VM": 4341,
      "Field', [], {'": 4342,
      "bb": 4343,
      "conn": 4344,
      "Feature": 4345,
      "theta": 4346,
      "s is not None:\n": 4347,
      "Var(": 4348,
      "Import": 4349,
      "{:": 4350,
      "8, 7.": 4351,
      "filename, ": 4352,
      "iteration": 4353,
      "ME_": 4354,
      "_stat": 4355,
      "dir, ": 4356,
      "dered": 4357,
      "mit_": 4358,
      "application/": 4359,
      "_csv": 4360,
      ".*": 4361,
      "self.assertEqual(\n": 4362,
      "signal": 4363,
      "ndim": 4364,
      "os.path.is": 4365,
      "kwargs['": 4366,
      "] * ": 4367,
      "done": 4368,
      "<SCOPE_OUT>if '": 4369,
      "Default": 4370,
      "(h": 4371,
      "ed(": 4372,
      "table_": 4373,
      "aggreg": 4374,
      "Dep": 4375,
      "2013-": 4376,
      "ump": 4377,
      "\"-": 4378,
      "flow_": 4379,
      "adj": 4380,
      "Factor": 4381,
      "'s ": 4382,
      "pret": 4383,
      " - 0.422": 4384,
      "gment": 4385,
      "sa.": 4386,
      "async_": 4387,
      "NY": 4388,
      "result)\n": 4389,
      "dtype, ": 4390,
      "white": 4391,
      "write('": 4392,
      "model(": 4393,
      "_prop": 4394,
      "sg": 4395,
      "name_": 4396,
      "s_dict": 4397,
      "false": 4398,
      "SELE": 4399,
      "Boo": 4400,
      "=True):\n": 4401,
      " %": 4402,
      "known": 4403,
      "<SCOPE_OUT>async def ": 4404,
      "split_": 4405,
      "None, None, ": 4406,
      "Link": 4407,
      "cip": 4408,
      "Batch": 4409,
      "int.": 4410,
      "evel": 4411,
      " = 0.": 4412,
      "Error):\n": 4413,
      "Operation": 4414,
      "Stream": 4415,
      "schedule": 4416,
      "vity": 4417,
      "reshape(": 4418,
      "Api": 4419,
      "alias": 4420,
      "item.": 4421,
      "x):\n": 4422,
      "2))\n": 4423,
      "def test": 4424,
      "override": 4425,
      "rent": 4426,
      "<SCOPE_IN>\"\"\"\n": 4427,
      "000000": 4428,
      "Faile": 4429,
      "82": 4430,
      "Clust": 4431,
      "unknown": 4432,
      "dtype=np.": 4433,
      "7f": 4434,
      "<SCOPE_IN>return \"": 4435,
      "extract_": 4436,
      "mesh": 4437,
      " \"\n": 4438,
      "docum": 4439,
      "keras.": 4440,
      "output = ": 4441,
      "SIZE": 4442,
      "73": 4443,
      "branch": 4444,
      "sque": 4445,
      "apter": 4446,
      "commit": 4447,
      "NE": 4448,
      "select_": 4449,
      "lex": 4450,
      "INFO": 4451,
      "Application": 4452,
      "de ": 4453,
      "serializ": 4454,
      "verify_": 4455,
      "value.": 4456,
      "write(\"": 4457,
      "Acce": 4458,
      "field.": 4459,
      "publish": 4460,
      "404": 4461,
      "ority": 4462,
      "POR": 4463,
      "sca": 4464,
      "_name\n": 4465,
      "5, 7.": 4466,
      "OK": 4467,
      "<SCOPE_IN>msg": 4468,
      "sure": 4469,
      "ator(": 4470,
      "_B": 4471,
      "2222": 4472,
      "_name=": 4473,
      "<SCOPE_OUT>elif isinstance(": 4474,
      "partition": 4475,
      "media": 4476,
      "Level": 4477,
      "JSON": 4478,
      "Que": 4479,
      "GP": 4480,
      "amount": 4481,
      "free": 4482,
      "s or ": 4483,
      "copy()\n": 4484,
      "processor": 4485,
      "Field(\n": 4486,
      "config)\n": 4487,
      "./": 4488,
      "COL": 4489,
      "(0)\n": 4490,
      "big": 4491,
      "end ": 4492,
      "', '--": 4493,
      "SE, ": 4494,
      "ating": 4495,
      "(e": 4496,
      "sym": 4497,
      "\">": 4498,
      "tin": 4499,
      "to(": 4500,
      "text)\n": 4501,
      "_check": 4502,
      "s'] = ": 4503,
      "_profile": 4504,
      "0,0,": 4505,
      "Cal": 4506,
      "strateg": 4507,
      "/64-bit``\n": 4508,
      "``16/32/64-bit``\n": 4509,
      "getLog": 4510,
      "Dire": 4511,
      "<SCOPE_IN>yield ": 4512,
      "diag": 4513,
      "argparse": 4514,
      "mach": 4515,
      "=1)\n": 4516,
      "Can": 4517,
      "Vi": 4518,
      "expression": 4519,
      "abc": 4520,
      "================": 4521,
      "t + ": 4522,
      "', models.": 4523,
      "tuple(": 4524,
      "key=": 4525,
      "Sta": 4526,
      "Len": 4527,
      "FT": 4528,
      "Delete": 4529,
      "NotFound": 4530,
      "fit": 4531,
      "0 = ": 4532,
      "transpose": 4533,
      "Chan": 4534,
      ".read": 4535,
      "Real": 4536,
      "module.": 4537,
      "Ospf": 4538,
      "sensor": 4539,
      "sed_": 4540,
      "Control": 4541,
      "Transform": 4542,
      "exp_": 4543,
      "left_": 4544,
      "}\"\n": 4545,
      "file__": 4546,
      "ical": 4547,
      "display_": 4548,
      "expected ": 4549,
      "self__": 4550,
      "LIN": 4551,
      "import nump": 4552,
      "type\": \"": 4553,
      "IM": 4554,
      "mapping": 4555,
      ", p": 4556,
      "provide": 4557,
      "<SCOPE_IN>return True\n": 4558,
      "<= ": 4559,
      "\": {\"": 4560,
      "Class": 4561,
      "result ": 4562,
      "bounds=(": 4563,
      "s - ": 4564,
      "json.dumps(": 4565,
      "'id": 4566,
      " name": 4567,
      "__self__": 4568,
      "bot.": 4569,
      "path):\n": 4570,
      "tu": 4571,
      "1', '": 4572,
      "gr.": 4573,
      "np\n": 4574,
      "within=": 4575,
      "your ": 4576,
      "Page": 4577,
      "REQU": 4578,
      "nap": 4579,
      "generate_": 4580,
      "3 ": 4581,
      "duration": 4582,
      "_test": 4583,
      "),initialize": 4584,
      "Var(within=": 4585,
      "andid": 4586,
      "_id\": ": 4587,
      "5,\n": 4588,
      "person": 4589,
      "ont": 4590,
      "number_": 4591,
      "*m.x": 4592,
      "rou": 4593,
      "] for ": 4594,
      "peat": 4595,
      "indx": 4596,
      "s),\n": 4597,
      "config = ": 4598,
      "sep": 4599,
      "Foreign": 4600,
      "question": 4601,
      "ctypes.": 4602,
      "__file__": 4603,
      "ING_": 4604,
      "_dire": 4605,
      "2f": 4606,
      "cms.": 4607,
      "ded ": 4608,
      "when ": 4609,
      "windo": 4610,
      "yaml": 4611,
      "primary_": 4612,
      "DataFile": 4613,
      "GG": 4614,
      "wf": 4615,
      "imum": 4616,
      "': [": 4617,
      "archive": 4618,
      "size = ": 4619,
      "time\n": 4620,
      "modifi": 4621,
      "freq": 4622,
      "explor": 4623,
      "S = ": 4624,
      "Stru": 4625,
      "records_": 4626,
      "_2": 4627,
      "header_": 4628,
      "xmm": 4629,
      "les": 4630,
      "(*": 4631,
      "), (3": 4632,
      "layers.": 4633,
      "dc": 4634,
      "(request": 4635,
      "@pulumi.": 4636,
      "requ": 4637,
      "83": 4638,
      "other):\n": 4639,
      "Flag": 4640,
      "10,\n": 4641,
      "*args, **kwargs)\n": 4642,
      "s is None:\n": 4643,
      "global_": 4644,
      "pipeline_": 4645,
      "<SCOPE_IN>c": 4646,
      ") is ": 4647,
      "right_": 4648,
      "str:\n": 4649,
      "F ": 4650,
      "assert_called_": 4651,
      "heigh": 4652,
      "shoul": 4653,
      ".id": 4654,
      "repositor": 4655,
      "[1:": 4656,
      "se ": 4657,
      "ado": 4658,
      "response, ": 4659,
      "u, ": 4660,
      "buffer": 4661,
      "s if ": 4662,
      "__name__ == \"": 4663,
      "_code": 4664,
      "reference": 4665,
      "ther": 4666,
      "validator": 4667,
      "\"id\": ": 4668,
      "_ele": 4669,
      ".execute": 4670,
      "Channel": 4671,
      "y as np\n": 4672,
      "single": 4673,
      "usage": 4674,
      "_in_": 4675,
      "linear": 4676,
      "_fn": 4677,
      "ut_": 4678,
      "': H": 4679,
      "inate": 4680,
      "MIB": 4681,
      "4,": 4682,
      "u\"": 4683,
      "pg": 4684,
      "r, ": 4685,
      "Error(\n": 4686,
      "ds.": 4687,
      "numer": 4688,
      "all()\n": 4689,
      "zip', '": 4690,
      "q.": 4691,
      "PL": 4692,
      "__main__\":\n": 4693,
      "Matri": 4694,
      "{})\n": 4695,
      "), \"": 4696,
      "int32": 4697,
      "PAR": 4698,
      "TEST_": 4699,
      "CU": 4700,
      ".key": 4701,
      "Lang": 4702,
      "import_": 4703,
      "speed": 4704,
      "issue": 4705,
      "average": 4706,
      "lite": 4707,
      "': 'True": 4708,
      "_token": 4709,
      "cen": 4710,
      "<SCOPE_OUT><SCOPE_OUT><SCOPE_OUT>class ": 4711,
      "store_true": 4712,
      "Location": 4713,
      "rozen": 4714,
      "And": 4715,
      "Gen": 4716,
      "s are ": 4717,
      "m ": 4718,
      "4, 1, ": 4719,
      "config, ": 4720,
      "filter_": 4721,
      "W_": 4722,
      "query.": 4723,
      "40": 4724,
      "MAP": 4725,
      "INTER": 4726,
      "direction": 4727,
      "loa": 4728,
      "dock": 4729,
      "self.assertFalse": 4730,
      "Place('": 4731,
      "noise": 4732,
      "batch_": 4733,
      "private": 4734,
      " = re.": 4735,
      "map.": 4736,
      "trade": 4737,
      "_from": 4738,
      "Widget": 4739,
      "ources": 4740,
      "_grad": 4741,
      "2, 7.": 4742,
      "when": 4743,
      "Dir": 4744,
      "lic_": 4745,
      "_id\n": 4746,
      "pred_": 4747,
      "b\\x": 4748,
      ":%": 4749,
      "Rel": 4750,
      "va": 4751,
      "er/": 4752,
      "okie": 4753,
      "s_by_name": 4754,
      "response)\n": 4755,
      "release": 4756,
      "\\'": 4757,
      "s=self.": 4758,
      "s, self.": 4759,
      "ud": 4760,
      "Byte": 4761,
      "ia": 4762,
      "sed": 4763,
      " F": 4764,
      "', self.": 4765,
      "(input_": 4766,
      "allow_": 4767,
      "atom": 4768,
      "number of ": 4769,
      "52": 4770,
      " = 0x": 4771,
      "s (": 4772,
      "VERSION": 4773,
      ",  NY": 4774,
      "_position": 4775,
      "geo": 4776,
      "_gpu": 4777,
      "lh": 4778,
      "addition": 4779,
      "(data": 4780,
      "six.": 4781,
      "get(self, \"": 4782,
      "pulumi.get(self, \"": 4783,
      "delete_": 4784,
      "@pulumi.get": 4785,
      "_mode": 4786,
      "pare": 4787,
      "mda_": 4788,
      "import numpy as np\n": 4789,
      "testing.": 4790,
      "[1].": 4791,
      "mut": 4792,
      " % ": 4793,
      "dere": 4794,
      "Error('": 4795,
      "ynamic": 4796,
      "s.zip', '": 4797,
      "Produ": 4798,
      "wrapper": 4799,
      "att": 4800,
      "tol": 4801,
      "organ": 4802,
      "mdaDataFile": 4803,
      "QL": 4804,
      "('hmda_": 4805,
      "': HmdaDataFile": 4806,
      "': HmdaDataFile('hmda_": 4807,
      "TION_": 4808,
      "'] = self.": 4809,
      "failure": 4810,
      "Linear": 4811,
      ": [": 4812,
      " - 1": 4813,
      "Volume": 4814,
      "ted.": 4815,
      " is not None and ": 4816,
      "widget": 4817,
      "sing ": 4818,
      "items(": 4819,
      "scalar": 4820,
      "1c": 4821,
      "3333": 4822,
      "pand": 4823,
      "nodes[0].": 4824,
      "2), ": 4825,
      "initial": 4826,
      "constants.": 4827,
      "My": 4828,
      "kind": 4829,
      "eze": 4830,
      "SELECT": 4831,
      "__name__ == \"__main__\":\n": 4832,
      " = \"\"\n": 4833,
      "number=": 4834,
      "<SCOPE_IN>raise ValueError('": 4835,
      "i)\n": 4836,
      "_stream": 4837,
      "CharField(": 4838,
      "pulumi.Input[str": 4839,
      "H_": 4840,
      "assign": 4841,
      "_frame": 4842,
      "_input_": 4843,
      "but ": 4844,
      " = np.zeros(": 4845,
      "litie": 4846,
      ": str,\n": 4847,
      "sph": 4848,
      "' not in ": 4849,
      "Boolean": 4850,
      "self\n": 4851,
      "*args):\n": 4852,
      "assword": 4853,
      ",  NYSE, ": 4854,
      "create(": 4855,
      ".setter\n": 4856,
      "Sp": 4857,
      "_type = ": 4858,
      "anchor": 4859,
      "\"}": 4860,
      "_op": 4861,
      "Warning": 4862,
      "TRI": 4863,
      "key in ": 4864,
      "thri": 4865,
      "org/": 4866,
      "Dis": 4867,
      "accurac": 4868,
      "Configuration": 4869,
      "(1)\n": 4870,
      "_norm": 4871,
      "1:": 4872,
      "alread": 4873,
      "_x": 4874,
      ".get(\"": 4875,
      "Sum": 4876,
      "AGE_": 4877,
      "_for": 4878,
      "fer": 4879,
      "res.": 4880,
      "6, 7.": 4881,
      "TEST": 4882,
      "solute": 4883,
      "any": 4884,
      "\": [": 4885,
      "\"+": 4886,
      "_name\": \"": 4887,
      "_clas": 4888,
      "['name": 4889,
      "sys\n": 4890,
      "ID_": 4891,
      "apply_": 4892,
      "Sto": 4893,
      "agent_": 4894,
      "Go": 4895,
      "EVEX": 4896,
      "g, ": 4897,
      "s3": 4898,
      "mod.": 4899,
      "Search": 4900,
      "element_": 4901,
      "Invalid ": 4902,
      "mum": 4903,
      "translate": 4904,
      "ts": 4905,
      "index, ": 4906,
      "_test_": 4907,
      "ln": 4908,
      "url = ": 4909,
      "iprot.": 4910,
      ".py": 4911,
      "sto": 4912,
      "80": 4913,
      "asure": 4914,
      "43": 4915,
      "Exten": 4916,
      ");\n": 4917,
      "v3": 4918,
      "10\n": 4919,
      "strip()\n": 4920,
      "None else ": 4921,
      "input(": 4922,
      "lap": 4923,
      "X-": 4924,
      "text, ": 4925,
      "ing(": 4926,
      "pos_": 4927,
      "timedelta": 4928,
      "s=None):\n": 4929,
      "\" + str(": 4930,
      "_description": 4931,
      "tificate": 4932,
      "Train": 4933,
      "action_": 4934,
      "********": 4935,
      "shape)\n": 4936,
      ", self).__init__(": 4937,
      "Sele": 4938,
      "_V": 4939,
      ") else ": 4940,
      "table.": 4941,
      "iv": 4942,
      "moji": 4943,
      "_var": 4944,
      "fp": 4945,
      "famil": 4946,
      "AVX": 4947,
      "json.loads(": 4948,
      "\" % (": 4949,
      "method_": 4950,
      "Work": 4951,
      "<SCOPE_IN>r": 4952,
      "AGE": 4953,
      "ADD": 4954,
      "<SCOPE_IN>@": 4955,
      "proble": 4956,
      " : ": 4957,
      "v1.": 4958,
      "[2]": 4959,
      "rest": 4960,
      "file = ": 4961,
      "round(": 4962,
      "ated": 4963,
      "s, \"": 4964,
      "_create_": 4965,
      "'django.": 4966,
      "\\n  ": 4967,
      "thrift_": 4968,
      "kwargs.get('": 4969,
      "Met": 4970,
      "One": 4971,
      "out(": 4972,
      "entication": 4973,
      "child_": 4974,
      "mix": 4975,
      "s2": 4976,
      "wit": 4977,
      "utils import ": 4978,
      "precate": 4979,
      "type = ": 4980,
      "_multi": 4981,
      "blue": 4982,
      "hoto": 4983,
      "startswith('": 4984,
      "ingle": 4985,
      "abspath": 4986,
      "deploy": 4987,
      "d for ": 4988,
      "precision": 4989,
      "text\n": 4990,
      "ASE_": 4991,
      "history": 4992,
      "shell": 4993,
      "unit_": 4994,
      "logging.getLog": 4995,
      ": %s": 4996,
      "Sig": 4997,
      "address_": 4998,
      "ori": 4999,
      "``V": 5000,
      "anel": 5001,
      "progres": 5002,
      "query(": 5003,
      "Language": 5004,
      "category": 5005,
      "threshold": 5006,
      "Binary": 5007,
      "url)\n": 5008,
      "Mixin": 5009,
      "Column(": 5010,
      "time.sleep(": 5011,
      " C": 5012,
      "Mar": 5013,
      "file=DESCRIPTOR": 5014,
      ") % ": 5015,
      "?? ": 5016,
      "endswith": 5017,
      "top_": 5018,
      "gd": 5019,
      "RES": 5020,
      "81": 5021,
      "60": 5022,
      "provider": 5023,
      "(\"/": 5024,
      "OT": 5025,
      "aut": 5026,
      "PC": 5027,
      "slo": 5028,
      "clear": 5029,
      "machine": 5030,
      "4,\n": 5031,
      "Type(": 5032,
      "custom_": 5033,
      "sive": 5034,
      "come": 5035,
      "finish": 5036,
      "_pub": 5037,
      "vec": 5038,
      "ale": 5039,
      "ifest": 5040,
      "elem": 5041,
      ": str, ": 5042,
      "[j": 5043,
      "bine": 5044,
      "PER": 5045,
      "soci": 5046,
      "\\d": 5047,
      "most": 5048,
      "isco": 5049,
      "ert": 5050,
      "license": 5051,
      "LD": 5052,
      "ground": 5053,
      "66666666": 5054,
      "main()\n": 5055,
      "\"},\n": 5056,
      "an_": 5057,
      "how": 5058,
      ".T": 5059,
      "[-": 5060,
      "// ": 5061,
      "val = ": 5062,
      "s[-1": 5063,
      "\\u4e": 5064,
      "squeeze": 5065,
      "<SCOPE_IN>x": 5066,
      "\\00": 5067,
      "balance": 5068,
      "(input": 5069,
      "0, 1, ": 5070,
      ", 2": 5071,
      "return _": 5072,
      "lobal": 5073,
      "hor": 5074,
      "pect": 5075,
      "label_": 5076,
      "follow": 5077,
      "{{": 5078,
      "Enable": 5079,
      "Account": 5080,
      ")+": 5081,
      "<SCOPE_OUT>def set_": 5082,
      "path_": 5083,
      "-1\n": 5084,
      "fic": 5085,
      "t(\"": 5086,
      "Off": 5087,
      "torch.c": 5088,
      "' + str(": 5089,
      "ga": 5090,
      "begin": 5091,
      "pix": 5092,
      "????????????????": 5093,
      "wi": 5094,
      "Host": 5095,
      "resolve": 5096,
      "node, ": 5097,
      "Edi": 5098,
      "driver.": 5099,
      "sitive": 5100,
      "close()\n": 5101,
      "entro": 5102,
      "s = list(": 5103,
      "holder": 5104,
      "api_version": 5105,
      "<SCOPE_OUT><SCOPE_OUT>def _": 5106,
      "5f": 5107,
      "Job": 5108,
      ",-": 5109,
      "bra": 5110,
      "return pulumi.get(self, \"": 5111,
      "watch": 5112,
      "search_": 5113,
      "lambda: ": 5114,
      "should be ": 5115,
      "<SCOPE_OUT>assert ": 5116,
      "Enti": 5117,
      "(cls, ": 5118,
      "CES": 5119,
      "WAR": 5120,
      "dst": 5121,
      ",'": 5122,
      "serialized_option": 5123,
      "63": 5124,
      "Thread": 5125,
      "': (": 5126,
      "data ": 5127,
      "1, 2": 5128,
      "compute_": 5129,
      "s a ": 5130,
      "compil": 5131,
      "<SCOPE_IN>n": 5132,
      "vor": 5133,
      "0.9": 5134,
      "__name__)\n": 5135,
      "sort_": 5136,
      "Ap": 5137,
      "R_": 5138,
      "self.assertIn": 5139,
      "line in ": 5140,
      "icon": 5141,
      "_dict['": 5142,
      "COMP": 5143,
      "_spe": 5144,
      ", c": 5145,
      "set = ": 5146,
      "', '-": 5147,
      "index_": 5148,
      "state_": 5149,
      "72": 5150,
      "current')\n": 5151,
      "), (1": 5152,
      "bg": 5153,
      "timeout=": 5154,
      "1e-": 5155,
      "SB": 5156,
      "Categor": 5157,
      "10)\n": 5158,
      "_email": 5159,
      "gue": 5160,
      " = len(": 5161,
      "b)\n": 5162,
      "(v": 5163,
      "<SCOPE_OUT>except Exception as e:\n": 5164,
      "alth": 5165,
      "selection": 5166,
      "CM": 5167,
      "compare": 5168,
      ".pop": 5169,
      "Regist": 5170,
      "Method": 5171,
      "__ import ": 5172,
      "shuff": 5173,
      "menu": 5174,
      "tom": 5175,
      "Status('current')\n": 5176,
      "Require": 5177,
      "__future": 5178,
      "\"]:\n": 5179,
      "reduce": 5180,
      "acity": 5181,
      "1024": 5182,
      "github.com/": 5183,
      ".object(": 5184,
      "Sign": 5185,
      "object ": 5186,
      "auto_": 5187,
      "MAN": 5188,
      "y-": 5189,
      "Buil": 5190,
      "here": 5191,
      "argument ": 5192,
      "\".format(\n": 5193,
      " = np.array([": 5194,
      "_size, ": 5195,
      "scape": 5196,
      "bounds=(0,": 5197,
      "conso": 5198,
      "set.": 5199,
      "OP_": 5200,
      "Layer": 5201,
      "__future__ import ": 5202,
      "feed": 5203,
      "avg": 5204,
      "Python ": 5205,
      "\".": 5206,
      "MIB\", \"": 5207,
      "from __future__ import ": 5208,
      "ometry": 5209,
      "is_extension": 5210,
      "Async": 5211,
      "out)\n": 5212,
      "status = ": 5213,
      "dum": 5214,
      "quare": 5215,
      "switch": 5216,
      "'})\n": 5217,
      "file_path": 5218,
      "DATA": 5219,
      "_pair": 5220,
      "flush": 5221,
      "Ve": 5222,
      "obj, ": 5223,
      "render_": 5224,
      "Struct": 5225,
      "receive": 5226,
      "gradi": 5227,
      "51": 5228,
      "_and_": 5229,
      "vent": 5230,
      "s[1].": 5231,
      "absolute": 5232,
      "gamma": 5233,
      "DF": 5234,
      ") > 0:\n": 5235,
      "or\n": 5236,
      "while True:\n": 5237,
      "'+": 5238,
      "Conv2": 5239,
      "root.": 5240,
      "WN": 5241,
      "__ = ": 5242,
      "enabled": 5243,
      "_range": 5244,
      "hour": 5245,
      "lst": 5246,
      "dict()\n": 5247,
      "calcul": 5248,
      "Top": 5249,
      "]), ": 5250,
      "fici": 5251,
      "y()\n": 5252,
      "_name=\"": 5253,
      ", self).": 5254,
      "value in ": 5255,
      "AD_": 5256,
      "socket.": 5257,
      "val\n": 5258,
      "load(": 5259,
      "allowe": 5260,
      "_, ": 5261,
      "device)\n": 5262,
      "send(": 5263,
      "sys.exit(": 5264,
      "layer.": 5265,
      " and not ": 5266,
      "service_": 5267,
      "if self._": 5268,
      "Row": 5269,
      "rea": 5270,
      "Expec": 5271,
      "local_var": 5272,
      "oo": 5273,
      "list, ": 5274,
      "WH": 5275,
      "post_": 5276,
      "ed.": 5277,
      "f in ": 5278,
      "copy_": 5279,
      "checkpoint": 5280,
      "vate_": 5281,
      "conf.": 5282,
      "atic": 5283,
      "redire": 5284,
      "SubElement(": 5285,
      "TS": 5286,
      " = t": 5287,
      "2/": 5288,
      "Sk": 5289,
      "Over": 5290,
      "voice": 5291,
      "builder": 5292,
      "gistr": 5293,
      "handle_": 5294,
      "relu": 5295,
      "ending": 5296,
      " that ": 5297,
      "unch": 5298,
      "ability": 5299,
      " --": 5300,
      "exe": 5301,
      "word ": 5302,
      "previou": 5303,
      "has_default_value": 5304,
      " = self.safe": 5305,
      "Pub": 5306,
      "gz": 5307,
      "key = ": 5308,
      "_scope=None,\n": 5309,
      " = Constraint(expr= ": 5310,
      "time = ": 5311,
      "AMP": 5312,
      "Count": 5313,
      "andidate": 5314,
      "(in": 5315,
      "You ": 5316,
      "_option": 5317,
      "FieldDescriptor(\n": 5318,
      " %s ": 5319,
      "extension_scope=None,\n": 5320,
      "prev": 5321,
      "9999,\t\t": 5322,
      "']))\n": 5323,
      "JEC": 5324,
      "cog": 5325,
      "OR_": 5326,
      ", 0x": 5327,
      "abo": 5328,
      "Union[": 5329,
      "defini": 5330,
      "bn": 5331,
      "import sys\n": 5332,
      "finall": 5333,
      "_indice": 5334,
      "<SCOPE_IN>pulumi.": 5335,
      "separ": 5336,
      "qubit": 5337,
      "ment.": 5338,
      "MAX_": 5339,
      "sentence": 5340,
      "FIN": 5341,
      "loss = ": 5342,
      "setMax": 5343,
      "1-": 5344,
      "2 * ": 5345,
      "GI": 5346,
      "for i, ": 5347,
      ".B": 5348,
      "alt": 5349,
      "ED_": 5350,
      "tif": 5351,
      "flatten": 5352,
      "'C": 5353,
      "er_id": 5354,
      "_dir, ": 5355,
      "der.": 5356,
      "charact": 5357,
      "ullable": 5358,
      "neigh": 5359,
      "', '???": 5360,
      "connect": 5361,
      "Stor": 5362,
      "block_": 5363,
      "gorith": 5364,
      "(len(": 5365,
      "checkpoint_": 5366,
      "ero": 5367,
      "<SCOPE_IN>pulumi.set(": 5368,
      "DE_": 5369,
      "}.": 5370,
      "should_": 5371,
      "conn.": 5372,
      "Cluster": 5373,
      "s_by_name['": 5374,
      "default='": 5375,
      "509": 5376,
      "ped": 5377,
      "action='": 5378,
      "ibTable": 5379,
      "presen": 5380,
      "So": 5381,
      "test\n": 5382,
      "ALL": 5383,
      "<SCOPE_IN>super().__init__": 5384,
      "data):\n": 5385,
      "ULL": 5386,
      ".un": 5387,
      "city_": 5388,
      "syste": 5389,
      "_line": 5390,
      "=1.": 5391,
      "str):\n": 5392,
      "reci": 5393,
      "q_": 5394,
      "ench": 5395,
      "7, 7.": 5396,
      "fake_": 5397,
      "gl": 5398,
      "_require": 5399,
      "DEBU": 5400,
      "self.assertEqual(len(": 5401,
      "\\x02": 5402,
      "ing_rate": 5403,
      "Dict[str, ": 5404,
      "f.read": 5405,
      "}')\n": 5406,
      "_PRO": 5407,
      "cd": 5408,
      "imat": 5409,
      "compres": 5410,
      "(user": 5411,
      "cted_": 5412,
      "rb": 5413,
      "Ordered": 5414,
      "1234": 5415,
      "ary ": 5416,
      "', 'zh': u('\\u6": 5417,
      "_model": 5418,
      "net.": 5419,
      "out, ": 5420,
      "query_parameter": 5421,
      "Schema": 5422,
      "kin": 5423,
      "mirror": 5424,
      "_cfg": 5425,
      "1\", \"": 5426,
      "hello": 5427,
      "forward(self, ": 5428,
      "PY": 5429,
      "each": 5430,
      "undle": 5431,
      "light": 5432,
      "ancel": 5433,
      "servation": 5434,
      "*m.b1": 5435,
      "png": 5436,
      "sock": 5437,
      "Test(": 5438,
      ".format(self.": 5439,
      "schedul": 5440,
      "complex": 5441,
      "p)\n": 5442,
      "type)\n": 5443,
      "buf": 5444,
      "query_param": 5445,
      "', 't": 5446,
      "register": 5447,
      "<SCOPE_IN>param": 5448,
      "c',\n": 5449,
      "ld": 5450,
      "allclose": 5451,
      "_cor": 5452,
      "rn": 5453,
      "confir": 5454,
      "ing, ": 5455,
      "'] == ": 5456,
      "sci": 5457,
      "finition": 5458,
      "item in ": 5459,
      "Entity": 5460,
      "e)\n": 5461,
      "tition": 5462,
      "start ": 5463,
      "[0:": 5464,
      "Query": 5465,
      "liter": 5466,
      ")[0]\n": 5467,
      "argin": 5468,
      "mpty": 5469,
      "/all": 5470,
      "opt.": 5471,
      "Ref": 5472,
      "Custom": 5473,
      "Please ": 5474,
      "c)\n": 5475,
      "size)\n": 5476,
      "_flag": 5477,
      "a/": 5478,
      "i = ": 5479,
      "lice": 5480,
      "master": 5481,
      "Client(": 5482,
      "EMA": 5483,
      "wN": 5484,
      "ANG": 5485,
      "DateTime": 5486,
      "_type=None, enum": 5487,
      "message_type=None, enum": 5488,
      "article": 5489,
      "_type=None, containing_type=None,\n": 5490,
      "message_type=None, enum_type=None, containing_type=None,\n": 5491,
      "cookie": 5492,
      "s(), ": 5493,
      "list):\n": 5494,
      "Detail": 5495,
      "_epoch": 5496,
      "copy(": 5497,
      "Validation": 5498,
      "=self._": 5499,
      "Policy": 5500,
      ": str\n": 5501,
      "random.rand": 5502,
      "<SCOPE_IN>t": 5503,
      "{}, ": 5504,
      "pres": 5505,
      "feature_": 5506,
      "cannot ": 5507,
      "rst": 5508,
      "=False, extension_scope=None,\n": 5509,
      "is_extension=False, extension_scope=None,\n": 5510,
      "finally:\n": 5511,
      "<SCOPE_IN>result = ": 5512,
      "' % (": 5513,
      "Access(\"": 5514,
      "setMaxAccess(\"": 5515,
      "SIG": 5516,
      "_gen": 5517,
      "file_name": 5518,
      "created_": 5519,
      "c\n": 5520,
      "           ": 5521,
      "definition": 5522,
      ".decode": 5523,
      "game.": 5524,
      "take": 5525,
      "led": 5526,
      "uplic": 5527,
      "Metadata": 5528,
      "'201": 5529,
      "df = ": 5530,
      "new ": 5531,
      "device=": 5532,
      "uda": 5533,
      "Vir": 5534,
      "request_": 5535,
      "8\n": 5536,
      "s().": 5537,
      "boun": 5538,
      "ET.SubElement(": 5539,
      "dot(": 5540,
      "cut": 5541,
      "tim": 5542,
      "unic": 5543,
      "prob": 5544,
      "2):\n": 5545,
      "S, ": 5546,
      "deco": 5547,
      "Matrix": 5548,
      "super": 5549,
      "': True,\n": 5550,
      "test ": 5551,
      "\", self.": 5552,
      " = np.array(": 5553,
      "notification": 5554,
      "None),\n": 5555,
      "<SCOPE_IN>if len(": 5556,
      "errors.": 5557,
      "select": 5558,
      "ry": 5559,
      "boar": 5560,
      "ical_": 5561,
      "_callback": 5562,
      "shuffle": 5563,
      "2(": 5564,
      "4, 7.": 5565,
      "href": 5566,
      "cls_": 5567,
      "append(\"": 5568,
      "info.": 5569,
      "s']['": 5570,
      "cuit": 5571,
      "\":512": 5572,
      "\":512,\"": 5573,
      "string_": 5574,
      "np.array([": 5575,
      "frozen": 5576,
      "': ['": 5577,
      "_pb2.": 5578,
      "_equal": 5579,
      "WC": 5580,
      "_('": 5581,
      ": %": 5582,
      "id ": 5583,
      "})": 5584,
      "~~": 5585,
      "ax.": 5586,
      "join(self.": 5587,
      "8,\n": 5588,
      "<SCOPE_OUT>def _get_": 5589,
      "s=[\"": 5590,
      "df['": 5591,
      "setMaxAccess(\"read": 5592,
      "text ": 5593,
      "255, ": 5594,
      "AAAA": 5595,
      "directory": 5596,
      "h_": 5597,
      ") )\n": 5598,
      "chat": 5599,
      "ation(": 5600,
      "asci": 5601,
      "123": 5602,
      "manager.": 5603,
      "decimal": 5604,
      "-%": 5605,
      "*m.b15": 5606,
      "Module):\n": 5607,
      "-MIB\", \"": 5608,
      "expor": 5609,
      "dir)\n": 5610,
      "ube": 5611,
      "deg": 5612,
      "size\n": 5613,
      "line)\n": 5614,
      "start, ": 5615,
      "soft": 5616,
      "<SCOPE_IN>logging.": 5617,
      "Dri": 5618,
      "await self.": 5619,
      "LIST": 5620,
      "proje": 5621,
      "pred": 5622,
      "reason": 5623,
      "than ": 5624,
      "': False,\n": 5625,
      "str(self.": 5626,
      "time.time()\n": 5627,
      "_date": 5628,
      "ps": 5629,
      "one ": 5630,
      "figure": 5631,
      "state = ": 5632,
      "v\n": 5633,
      "5,": 5634,
      "wNsx": 5635,
      "]])\n": 5636,
      "box.": 5637,
      "headers=": 5638,
      "isode": 5639,
      "vmwNsx": 5640,
      "grade": 5641,
      "(s": 5642,
      "params=": 5643,
      "v4": 5644,
      "EST": 5645,
      "str'},\n": 5646,
      "ger_": 5647,
      "i in range(": 5648,
      "s.set": 5649,
      "oprot.": 5650,
      "\": True,\n": 5651,
      "int)\n": 5652,
      "2.0": 5653,
      "self._serialize.url": 5654,
      ") = ": 5655,
      "histor": 5656,
      "Au": 5657,
      "Symbol": 5658,
      "clip": 5659,
      "float, ": 5660,
      "??????": 5661,
      "MIN": 5662,
      "application/json": 5663,
      "initial_": 5664,
      "response\n": 5665,
      "8)\n": 5666,
      "_factor": 5667,
      "_int": 5668,
      "1',\n": 5669,
      "maximum": 5670,
      "save()\n": 5671,
      "size(": 5672,
      "dict):\n": 5673,
      "basic": 5674,
      "Syn": 5675,
      "Status": 5676,
      "s=True)\n": 5677,
      "keyword": 5678,
      "a', '": 5679,
      "3), ": 5680,
      "\\n\\n": 5681,
      "Ali": 5682,
      "\\x3": 5683,
      "<SCOPE_IN>data = ": 5684,
      "path\n": 5685,
      "_case": 5686,
      "rpc": 5687,
      "mg": 5688,
      "lldb.": 5689,
      "Point(": 5690,
      "Ste": 5691,
      "2d": 5692,
      "0, 2": 5693,
      "framework": 5694,
      "s as ": 5695,
      "assert isinstance(": 5696,
      "final": 5697,
      "=False, default_value": 5698,
      "coe": 5699,
      "constru": 5700,
      "**kw": 5701,
      "4 + ": 5702,
      "combine": 5703,
      "??? ????": 5704,
      "try ": 5705,
      "_tag": 5706,
      "sing_": 5707,
      "ATTR": 5708,
      "Timestamp": 5709,
      "VALU": 5710,
      "deep": 5711,
      "argument('": 5712,
      "has_default_value=False, default_value": 5713,
      "Sup": 5714,
      "_per_": 5715,
      "item_": 5716,
      "np.array(": 5717,
      "monitor": 5718,
      "td": 5719,
      "log(": 5720,
      "list()\n": 5721,
      "s: Optional[": 5722,
      "Target": 5723,
      "Web": 5724,
      "SU": 5725,
      "_connection": 5726,
      "cmd_": 5727,
      "(f'": 5728,
      "\"city": 5729,
      ".C": 5730,
      "name: ": 5731,
      "ram": 5732,
      "': None,\n": 5733,
      "_folder": 5734,
      "two": 5735,
      "next(": 5736,
      "san": 5737,
      "ort.": 5738,
      "][\"": 5739,
      "any(": 5740,
      ", 'w": 5741,
      "]] = None,\n": 5742,
      "value_": 5743,
      "\\s*": 5744,
      "STRING": 5745,
      "Metric": 5746,
      "_descriptor.FieldDescriptor(\n": 5747,
      "relation": 5748,
      "Fr": 5749,
      "SD": 5750,
      "ate ": 5751,
      "PRE": 5752,
      "g ": 5753,
      "lar": 5754,
      "expected)\n": 5755,
      "', 'zh': u('\\u5": 5756,
      "OB": 5757,
      ">>> ": 5758,
      "gramm": 5759,
      "i\n": 5760,
      "bbox": 5761,
      "ctr": 5762,
      "bucket_": 5763,
      "push": 5764,
      "v)\n": 5765,
      " = self._get_": 5766,
      "a\n": 5767,
      "eader": 5768,
      "params)\n": 5769,
      "1), ": 5770,
      "with pytest.raises(": 5771,
      "Ip": 5772,
      "tm.": 5773,
      "plane": 5774,
      "<SCOPE_OUT><SCOPE_OUT><SCOPE_OUT>return ": 5775,
      "accept": 5776,
      "product": 5777,
      "colum": 5778,
      "forward_": 5779,
      "LL": 5780,
      "x-": 5781,
      "res_": 5782,
      "s.shape": 5783,
      "formation": 5784,
      "THeader": 5785,
      "State.": 5786,
      "THeaderProtocol": 5787,
      "aff": 5788,
      "S(1": 5789,
      "ts_": 5790,
      "<SCOPE_IN>ret": 5791,
      "ctx, ": 5792,
      "DEBUG": 5793,
      "Widget(": 5794,
      "_(\"": 5795,
      "parse_arg": 5796,
      "append(\n": 5797,
      "_with": 5798,
      "If": 5799,
      "Pattern": 5800,
      "_produ": 5801,
      "host_": 5802,
      "output, ": 5803,
      "', 'type': 'str'},\n": 5804,
      "camer": 5805,
      "2 + ": 5806,
      "address": 5807,
      "present": 5808,
      "]).": 5809,
      "z_": 5810,
      "<SCOPE_OUT><SCOPE_OUT>def get_": 5811,
      ")(": 5812,
      "Rou": 5813,
      "cond": 5814,
      "O_": 5815,
      "erature": 5816,
      " '\n": 5817,
      " on ": 5818,
      "_error": 5819,
      "l2": 5820,
      "code\": \"": 5821,
      "float32)\n": 5822,
      "Length": 5823,
      "6)\n": 5824,
      "Wrap": 5825,
      "obj = ": 5826,
      "line = ": 5827,
      "AVX512": 5828,
      "r``\n": 5829,
      "<SCOPE_OUT>elif self.": 5830,
      ".png": 5831,
      "MMM": 5832,
      "input ": 5833,
      "retrie": 5834,
      "Pay": 5835,
      " must be ": 5836,
      "90": 5837,
      "_propertie": 5838,
      "NN": 5839,
      "pid": 5840,
      "config[\"": 5841,
      "column_": 5842,
      ".group": 5843,
      "measure": 5844,
      "minute": 5845,
      "phase": 5846,
      "relative": 5847,
      "c in ": 5848,
      "A-": 5849,
      "resp.": 5850,
      "using ": 5851,
      "USER": 5852,
      "800": 5853,
      "gy": 5854,
      "[(": 5855,
      "ino": 5856,
      "ency": 5857,
      "), (14": 5858,
      "def __": 5859,
      "ASS": 5860,
      "code, ": 5861,
      "__self__, \"": 5862,
      "umb": 5863,
      "input_shape": 5864,
      ".html": 5865,
      "XR": 5866,
      "insert(": 5867,
      "GB": 5868,
      "red ": 5869,
      "index(": 5870,
      "wra": 5871,
      "COUN": 5872,
      "server.": 5873,
      "93": 5874,
      "Handl": 5875,
      "visible": 5876,
      "V_": 5877,
      "array.": 5878,
      "args(": 5879,
      "assert_called_on": 5880,
      "('utf-8": 5881,
      "generator": 5882,
      "integr": 5883,
      "path('": 5884,
      " = Var(within=": 5885,
      "image.": 5886,
      "oft": 5887,
      "ones(": 5888,
      "Lib": 5889,
      "wer": 5890,
      "w, ": 5891,
      "1111": 5892,
      "marker": 5893,
      "original_": 5894,
      "0)": 5895,
      "a\\x": 5896,
      "ligh": 5897,
      "encoder_": 5898,
      "resource_group_name": 5899,
      "Extension": 5900,
      "<SCOPE_OUT><SCOPE_OUT><SCOPE_OUT>if ": 5901,
      "),initialize=0)\n": 5902,
      "3:\n": 5903,
      "_node": 5904,
      "solution": 5905,
      "export_": 5906,
      "0 and ": 5907,
      "black": 5908,
      "final_": 5909,
      "bot_": 5910,
      "aaaa": 5911,
      "Ran": 5912,
      "val, ": 5913,
      "setUp(self):\n": 5914,
      "01,\n": 5915,
      "Rate": 5916,
      "Admin": 5917,
      "Header": 5918,
      "Exist": 5919,
      "mitive": 5920,
      "ndarray": 5921,
      "CONFIG": 5922,
      "i in ": 5923,
      "Local": 5924,
      "script_": 5925,
      "device, ": 5926,
      "subject": 5927,
      "AIN": 5928,
      "Response(": 5929,
      "bet": 5930,
      "(a, ": 5931,
      "a)\n": 5932,
      "Tool": 5933,
      "Port": 5934,
      "_so": 5935,
      "_PATH": 5936,
      "exploration": 5937,
      "hu": 5938,
      "_file(": 5939,
      "google.": 5940,
      "(0.": 5941,
      "++": 5942,
      "task_": 5943,
      " != '": 5944,
      ": bool = ": 5945,
      "training_": 5946,
      "before": 5947,
      "imator": 5948,
      "Memb": 5949,
      "Hist": 5950,
      "__init__(self, ": 5951,
      "assert not ": 5952,
      "destination": 5953,
      ".from": 5954,
      "debug(\"": 5955,
      "name = '": 5956,
      "point ": 5957,
      "MAT": 5958,
      "MB'),\n": 5959,
      "k in ": 5960,
      "header_parameter": 5961,
      "instance.": 5962,
      ":, ": 5963,
      "((1, 3, 6, 1, 4, 1, ": 5964,
      "p2": 5965,
      "s = [\"": 5966,
      "migrations.": 5967,
      "memory": 5968,
      "':'": 5969,
      " will ": 5970,
      "constraint": 5971,
      "<SCOPE_IN>data": 5972,
      "%s/": 5973,
      "int64": 5974,
      "warnings.": 5975,
      "d=": 5976,
      "SET": 5977,
      "1\\x": 5978,
      "Wh": 5979,
      "**kwargs\n": 5980,
      "https://www.": 5981,
      "asyncio.": 5982,
      "cmd.": 5983,
      "Min": 5984,
      "coordinate": 5985,
      "GER": 5986,
      "dependencie": 5987,
      "_pipeline": 5988,
      "boot": 5989,
      "baz": 5990,
      "VE": 5991,
      "v6": 5992,
      "_post": 5993,
      "Route": 5994,
      "_prob": 5995,
      "abstract": 5996,
      "her": 5997,
      "n)\n": 5998,
      "pie": 5999,
      "d',\n": 6000,
      "dra": 6001,
      "<SCOPE_IN>raise NotImplemented": 6002,
      ".to": 6003,
      "+= 1\n": 6004,
      "]*": 6005,
      "asic": 6006,
      "Disp": 6007,
      "' and ": 6008,
      "Eng": 6009,
      "encoder": 6010,
      "NULL": 6011,
      "opts.": 6012,
      "serv": 6013,
      "ony": 6014,
      "', full_name='": 6015,
      "_parser": 6016,
      "91": 6017,
      "tf_": 6018,
      "onent": 6019,
      " T": 6020,
      "Const": 6021,
      "(arg": 6022,
      "2019": 6023,
      "unittest.TestCase):\n": 6024,
      "Cap": 6025,
      "': True": 6026,
      "file ": 6027,
      "missing": 6028,
      "only_": 6029,
      "<SCOPE_OUT><SCOPE_OUT><SCOPE_OUT>\n": 6030,
      "core/": 6031,
      ".return_value": 6032,
      "default ": 6033,
      "er):\n": 6034,
      "ated ": 6035,
      "wave": 6036,
      "rowser": 6037,
      "art": 6038,
      "ATE_": 6039,
      "sted_": 6040,
      "[0-9": 6041,
      "allel": 6042,
      "\": self.": 6043,
      "ding_": 6044,
      "2, 2": 6045,
      "sic": 6046,
      "ext_": 6047,
      "Expected ": 6048,
      "_field": 6049,
      "episode": 6050,
      "find('": 6051,
      "s_in": 6052,
      "c.argument('": 6053,
      "message)\n": 6054,
      "sess.": 6055,
      "1\",\n": 6056,
      "\"\"\" ": 6057,
      "network_": 6058,
      "vm.": 6059,
      "radiu": 6060,
      "(value": 6061,
      "\"), (\"": 6062,
      "), (15": 6063,
      "<SCOPE_IN>path": 6064,
      "CONT": 6065,
      "), (12": 6066,
      "exceptions.": 6067,
      "HOST": 6068,
      "alan": 6069,
      "rent_": 6070,
      "_sup": 6071,
      "\"_id\": ": 6072,
      "2D": 6073,
      "gt": 6074,
      "ing = ": 6075,
      "ATION_": 6076,
      "integer": 6077,
      "messages.": 6078,
      "WI": 6079,
      "[]": 6080,
      "ter.": 6081,
      "shared_": 6082,
      "ant ": 6083,
      "http://www.": 6084,
      "class(": 6085,
      "Test ": 6086,
      "view(": 6087,
      "thon_": 6088,
      "s = 0\n": 6089,
      "running": 6090,
      "0, \"": 6091,
      "cryption": 6092,
      "Match": 6093,
      "FRO": 6094,
      "et_": 6095,
      "period": 6096,
      "_schema": 6097,
      "player": 6098,
      "curr": 6099,
      "<SCOPE_IN>new_": 6100,
      "Speci": 6101,
      "assert(": 6102,
      "filte": 6103,
      "ating ": 6104,
      "\"pid\": ": 6105,
      "_number": 6106,
      "Post": 6107,
      "ki": 6108,
      "nb": 6109,
      " = nn.": 6110,
      "dropout": 6111,
      "Document": 6112,
      "\".join(": 6113,
      "middle": 6114,
      "=None)\n": 6115,
      "list)\n": 6116,
      "12.": 6117,
      "\"city_": 6118,
      "Context": 6119,
      "_props__": 6120,
      "\"city_name\": \"": 6121,
      "qt": 6122,
      "\"city_code\": \"": 6123,
      "2*m.b": 6124,
      "MT": 6125,
      "failed": 6126,
      "s.key": 6127,
      "val)\n": 6128,
      "': HmdaDataFile('hmda_201": 6129,
      "__props__": 6130,
      "ender": 6131,
      "=args.": 6132,
      "', help='": 6133,
      "normal": 6134,
      "s)):\n": 6135,
      "log.debug": 6136,
      "learning_rate": 6137,
      "') as ": 6138,
      "Shape": 6139,
      "j in range(": 6140,
      "ut(": 6141,
      "requires_": 6142,
      "parser.add_argument(\n": 6143,
      " B": 6144,
      "DS": 6145,
      "P<": 6146,
      "logger = ": 6147,
      "negative": 6148,
      "Pe": 6149,
      ") == \"": 6150,
      "6\n": 6151,
      "_with_": 6152,
      "deprecate": 6153,
      "bc": 6154,
      "rec": 6155,
      "cha": 6156,
      "s is ": 6157,
      "poly": 6158,
      "name.": 6159,
      "container_": 6160,
      "Queue": 6161,
      "Storage": 6162,
      "Tree": 6163,
      "{k": 6164,
      "0])\n": 6165,
      "mock.patch.object(": 6166,
      "16, ": 6167,
      "s[0], ": 6168,
      "c\\x": 6169,
      "<SCOPE_OUT><SCOPE_OUT>for ": 6170,
      "s = (": 6171,
      "\", '": 6172,
      "reset_": 6173,
      "phy": 6174,
      "<SCOPE_IN>self.assertEqual(": 6175,
      "s1": 6176,
      "s\"]\n": 6177,
      "HEAD": 6178,
      "error_map": 6179,
      "it.": 6180,
      "0, 4": 6181,
      "_bi": 6182,
      "-1, -1, ": 6183,
      "summary": 6184,
      "s * ": 6185,
      "_cal": 6186,
      "},": 6187,
      "\\n\\x": 6188,
      "2*": 6189,
      "NI": 6190,
      "\"city_code\": \"101": 6191,
      "<SCOPE_IN>x = ": 6192,
      "\\x01(": 6193,
      "########": 6194,
      "ush": 6195,
      "cls(": 6196,
      "Virt": 6197,
      ".b": 6198,
      "yang": 6199,
      "hyper": 6200,
      "[5": 6201,
      "l = ": 6202,
      "COMM": 6203,
      "setup_": 6204,
      "UI": 6205,
      "s = {'": 6206,
      "Mag": 6207,
      "adv": 6208,
      "string ": 6209,
      "alization": 6210,
      "n(": 6211,
      "_size = ": 6212,
      "task.": 6213,
      "_director": 6214,
      "type == ": 6215,
      "asset": 6216,
      "extern": 6217,
      "mean(": 6218,
      "ename": 6219,
      "tach": 6220,
      "ked_": 6221,
      "\"\\n": 6222,
      "_property": 6223,
      "<SCOPE_IN>h": 6224,
      "ures": 6225,
      "']),\n": 6226,
      "String(": 6227,
      "_result": 6228,
      "s.add(": 6229,
      "), (27": 6230,
      "<SCOPE_IN>def __init__(self):\n": 6231,
      ", y_": 6232,
      "delay": 6233,
      "type\n": 6234,
      "TEX": 6235,
      "bool:\n": 6236,
      "None or ": 6237,
      "act_": 6238,
      "been ": 6239,
      "DATA_": 6240,
      "label=1,\n": 6241,
      "round_": 6242,
      "_cap": 6243,
      "), (24": 6244,
      "start = ": 6245,
      "d = True\n": 6246,
      "LIC": 6247,
      "active_": 6248,
      "s])\n": 6249,
      "if not isinstance(": 6250,
      "notif": 6251,
      "Reference": 6252,
      "entitie": 6253,
      "argparse.": 6254,
      "s.items():\n": 6255,
      "pe.": 6256,
      "name}": 6257,
      "laz": 6258,
      "Lic": 6259,
      "axis_": 6260,
      "Propertie": 6261,
      "shot_": 6262,
      "'], '": 6263,
      "optional": 6264,
      "em": 6265,
      "replace('": 6266,
      "sampl": 6267,
      "<SCOPE_OUT>if isinstance(": 6268,
      "_params['": 6269,
      "Distri": 6270,
      "s_and_": 6271,
      "0\\x": 6272,
      "self.assertFalse(": 6273,
      "<SCOPE_IN>b": 6274,
      "1):\n": 6275,
      "revision": 6276,
      "'55": 6277,
      "'_": 6278,
      "Close": 6279,
      "s) ": 6280,
      " + 1\n": 6281,
      "Migration": 6282,
      "spar": 6283,
      "Transaction": 6284,
      "idx, ": 6285,
      "<SCOPE_IN>po": 6286,
      "%Y": 6287,
      "algorith": 6288,
      "original": 6289,
      "distribution": 6290,
      "Pr": 6291,
      "response_": 6292,
      "client = ": 6293,
      "41": 6294,
      "traceback": 6295,
      "sible": 6296,
      "addresse": 6297,
      "y):\n": 6298,
      "<SCOPE_IN>raise ValueError(\n": 6299,
      "mbedding": 6300,
      "user = ": 6301,
      "admin_": 6302,
      "Reals,": 6303,
      "_syn": 6304,
      "resourceGroup": 6305,
      "native": 6306,
      "command ": 6307,
      "currency": 6308,
      "expand_": 6309,
      "'type': '": 6310,
      "logger": 6311,
      "full_": 6312,
      "actor": 6313,
      "_disp": 6314,
      "hass.": 6315,
      "sys.stdout": 6316,
      "vlan": 6317,
      "theme": 6318,
      "Random": 6319,
      "Tot": 6320,
      "pdf": 6321,
      "repor": 6322,
      "if not self.": 6323,
      "Python": 6324,
      "arange(": 6325,
      "%\n": 6326,
      "peer": 6327,
      "name': '": 6328,
      "-1]\n": 6329,
      "iterator": 6330,
      "lb": 6331,
      "vm_": 6332,
      "', index=": 6333,
      "compo": 6334,
      "loud": 6335,
      "cos(": 6336,
      "umul": 6337,
      "TY_": 6338,
      "[])\n": 6339,
      "Bar": 6340,
      "Lim": 6341,
      "Expression": 6342,
      "\"}\n": 6343,
      ", self._": 6344,
      "999": 6345,
      "os.path.dirname(": 6346,
      "__(self, other):\n": 6347,
      "most_": 6348,
      "()))\n": 6349,
      "broad": 6350,
      "FrSw": 6351,
      "ward_": 6352,
      "r)\n": 6353,
      "thi": 6354,
      "<SCOPE_OUT>def get": 6355,
      "builder.": 6356,
      "experiment": 6357,
      "redi": 6358,
      "ant.": 6359,
      "out\n": 6360,
      "dde": 6361,
      "data(": 6362,
      "ce_with": 6363,
      "<SCOPE_OUT><SCOPE_OUT>self.": 6364,
      "parsed_": 6365,
      "Fake": 6366,
      "threshol": 6367,
      "_dir)\n": 6368,
      "0/": 6369,
      "ing',\n": 6370,
      "!\")\n": 6371,
      "don": 6372,
      "{1}": 6373,
      "that": 6374,
      "__dict__": 6375,
      "cycle": 6376,
      "Scri": 6377,
      "(Y": 6378,
      "BR": 6379,
      "d\\x": 6380,
      "_pattern": 6381,
      "repr__(self):\n": 6382,
      "License": 6383,
      "func_": 6384,
      "Position": 6385,
      ":`": 6386,
      "p in ": 6387,
      "wfFrSw": 6388,
      "OL": 6389,
      "simul": 6390,
      "thrift_spec": 6391,
      "(['": 6392,
      "-1.": 6393,
      "STAR": 6394,
      "rop": 6395,
      "type=\"": 6396,
      "tun": 6397,
      "E_P": 6398,
      "policy_": 6399,
      "alloc": 6400,
      "LOW": 6401,
      "select(": 6402,
      "FLAGS.": 6403,
      "(image": 6404,
      "tan": 6405,
      "str)\n": 6406,
      "direct": 6407,
      "listen": 6408,
      "used_": 6409,
      "Author": 6410,
      "Noti": 6411,
      "CHEC": 6412,
      "state, ": 6413,
      "l, ": 6414,
      "s.get('": 6415,
      "Profile": 6416,
      "start()\n": 6417,
      "ee": 6418,
      "tensorflow.": 6419,
      "S(": 6420,
      "tx_": 6421,
      "wal": 6422,
      " I": 6423,
      "external": 6424,
      "object.": 6425,
      "%s\" % (": 6426,
      "tude": 6427,
      "Mock(": 6428,
      "600": 6429,
      "0.2": 6430,
      "selected_": 6431,
      "Named": 6432,
      "<SCOPE_IN>value": 6433,
      "multiple": 6434,
      "suite": 6435,
      ",\t\t0,\t\t": 6436,
      "body_": 6437,
      "??? ": 6438,
      "gmod.": 6439,
      "refresh": 6440,
      "answer": 6441,
      "timezone": 6442,
      "uld not ": 6443,
      " <= 0)\n": 6444,
      "s = tf.": 6445,
      "DP": 6446,
      "f)\n": 6447,
      "strg": 6448,
      "expand": 6449,
      "_interval": 6450,
      "thir": 6451,
      "operand": 6452,
      "e\\x": 6453,
      "_pk": 6454,
      "uti": 6455,
      "fine": 6456,
      "usion": 6457,
      ".__name__": 6458,
      "makedir": 6459,
      "s[0])\n": 6460,
      "\"\"\n": 6461,
      "workspace": 6462,
      "READ": 6463,
      "sender": 6464,
      "Analy": 6465,
      "graph.": 6466,
      "concaten": 6467,
      "vc": 6468,
      "''\n": 6469,
      "deca": 6470,
      "DataFrame(": 6471,
      "Exception):\n": 6472,
      "_num": 6473,
      "output)\n": 6474,
      "ibTableColumn": 6475,
      "guil": 6476,
      "Ag": 6477,
      "), (17": 6478,
      "s': {\n": 6479,
      "memory_": 6480,
      "11.": 6481,
      "report": 6482,
      "s = get_": 6483,
      "Comple": 6484,
      ".P": 6485,
      "test-": 6486,
      "strf": 6487,
      "%s.": 6488,
      "Av": 6489,
      "created": 6490,
      "ply": 6491,
      "d['": 6492,
      "Head": 6493,
      "(?P<": 6494,
      "Mach": 6495,
      "---": 6496,
      "ref_": 6497,
      "program": 6498,
      "Attr": 6499,
      "SQL": 6500,
      "end.": 6501,
      "), (13": 6502,
      "Serializer": 6503,
      "able_": 6504,
      "dim=": 6505,
      "vices": 6506,
      "<SCOPE_OUT>return self.": 6507,
      ".csv": 6508,
      "string(": 6509,
      "=models.": 6510,
      "?','": 6511,
      "bt": 6512,
      "ly(": 6513,
      "Gate": 6514,
      "until": 6515,
      "FE": 6516,
      "auth.": 6517,
      "assert_called_once_with": 6518,
      "3, 4": 6519,
      "workflow": 6520,
      "dicate": 6521,
      "type: ": 6522,
      "arie": 6523,
      " = '/": 6524,
      ".add": 6525,
      "AME": 6526,
      "g = ": 6527,
      "), (18": 6528,
      "lower": 6529,
      "\":8": 6530,
      "remove_": 6531,
      "Common": 6532,
      "pixel": 6533,
      "FIX": 6534,
      "eval_": 6535,
      "_name_": 6536,
      "<SCOPE_IN>raise Runtime": 6537,
      "grp": 6538,
      "Transp": 6539,
      "ASE": 6540,
      "d(\n": 6541,
      "Path(": 6542,
      "Write": 6543,
      "') ": 6544,
      "Edge": 6545,
      "Project": 6546,
      "support": 6547,
      "Start": 6548,
      "def __init__(\n": 6549,
      "Li": 6550,
      "master_": 6551,
      "hal": 6552,
      "file:\n": 6553,
      "2d(": 6554,
      "o\n": 6555,
      "under": 6556,
      "204": 6557,
      "*m.b14": 6558,
      "gen_": 6559,
      ",), ": 6560,
      "tial": 6561,
      "attack": 6562,
      " in the ": 6563,
      "torch.nn.": 6564,
      "include_": 6565,
      "handler.": 6566,
      "Abstract": 6567,
      "Machine": 6568,
      "fit_": 6569,
      "LOG.": 6570,
      "\\u4e1c": 6571,
      "self._serialize.url(\"": 6572,
      "357": 6573,
      "conv_": 6574,
      "manifest": 6575,
      " -\n": 6576,
      "\":8,\"": 6577,
      "class=\"": 6578,
      "json\n": 6579,
      "width=": 6580,
      "method ": 6581,
      "TP": 6582,
      "e\n": 6583,
      "secre": 6584,
      "Fix": 6585,
      "as(": 6586,
      "float64": 6587,
      "Fail": 6588,
      "KE_": 6589,
      "<SCOPE_OUT>if len(": 6590,
      "_ in range(": 6591,
      "list of ": 6592,
      "_fin": 6593,
      "strftime": 6594,
      "?','?','": 6595,
      "expected = ": 6596,
      "rand(": 6597,
      "k, v in ": 6598,
      "Bad": 6599,
      "': self._serialize.url(\"": 6600,
      "0], ": 6601,
      "_info.": 6602,
      "in_channel": 6603,
      "Content-": 6604,
      "S\n": 6605,
      "The": 6606,
      "'86157": 6607,
      "datetime.now": 6608,
      ", self).__init__()\n": 6609,
      "Example": 6610,
      "help_": 6611,
      "_interface": 6612,
      "mary": 6613,
      "\\u5dde": 6614,
      "%s' % (": 6615,
      "<SCOPE_IN>raise TypeError(\"": 6616,
      "3\\x": 6617,
      "np.nan": 6618,
      "window_": 6619,
      "T, ": 6620,
      "class Test": 6621,
      "Permission": 6622,
      "will be ": 6623,
      "z = ": 6624,
      "requests.": 6625,
      "'c": 6626,
      "of the ": 6627,
      "width, ": 6628,
      "125": 6629,
      "Id = ": 6630,
      "_string(": 6631,
      "<SCOPE_OUT>finally:\n": 6632,
      "Cir": 6633,
      "ui": 6634,
      "common_": 6635,
      "ssh": 6636,
      "img.": 6637,
      "sparse": 6638,
      ")] = ": 6639,
      "US_": 6640,
      "latest": 6641,
      ")],\n": 6642,
      "_cm": 6643,
      "Classi": 6644,
      "C3": 6645,
      "'''": 6646,
      "ater": 6647,
      "neighbor": 6648,
      "%s, ": 6649,
      "92": 6650,
      "_r": 6651,
      "sRe": 6652,
      "*m.b18": 6653,
      "AS ": 6654,
      "_cat": 6655,
      " \\x01(": 6656,
      "Cell": 6657,
      "d = False\n": 6658,
      "minimum": 6659,
      "h, ": 6660,
      "iou": 6661,
      "Status.": 6662,
      "Track": 6663,
      "translation": 6664,
      "Text(": 6665,
      "-name": 6666,
      "kar": 6667,
      "effe": 6668,
      "] - ": 6669,
      "vpn": 6670,
      "\"] = \"": 6671,
      "comput": 6672,
      "<SCOPE_OUT>except Key": 6673,
      "DU": 6674,
      "ant(": 6675,
      "scores": 6676,
      "_store": 6677,
      "name))\n": 6678,
      "_w": 6679,
      "self.assertEqual(self.": 6680,
      "_len": 6681,
      "2\\x": 6682,
      "False),\n": 6683,
      "_kwarg": 6684,
      "ech": 6685,
      "nl": 6686,
      "Key(": 6687,
      "() - ": 6688,
      "={": 6689,
      "s={'": 6690,
      "Dict(": 6691,
      "\"v": 6692,
      "data:\n": 6693,
      "ness_": 6694,
      "[i * ": 6695,
      "WARE": 6696,
      "abspath(": 6697,
      "ux": 6698,
      "name] = ": 6699,
      "=1e-": 6700,
      "since": 6701,
      "*m.b17": 6702,
      "ENG": 6703,
      "losse": 6704,
      "TED": 6705,
      "'.format(\n": 6706,
      "n\n": 6707,
      "result(": 6708,
      "allowed_": 6709,
      "Driver": 6710,
      "ear": 6711,
      "0:": 6712,
      "t-": 6713,
      "Initi": 6714,
      "OM": 6715,
      "raise\n": 6716,
      "_conver": 6717,
      "transport": 6718,
      "list = ": 6719,
      "_conten": 6720,
      "offset ": 6721,
      "%s)": 6722,
      "_data = ": 6723,
      "wallet_": 6724,
      "'f": 6725,
      "'] == '": 6726,
      "s[key": 6727,
      "you": 6728,
      "titem": 6729,
      " {}": 6730,
      "1))\n": 6731,
      "proj": 6732,
      "6,": 6733,
      "trainer.": 6734,
      "fixed_": 6735,
      "able to ": 6736,
      "ONE": 6737,
      "NING": 6738,
      "status=": 6739,
      "this_": 6740,
      "already ": 6741,
      "TEMP": 6742,
      "typing import ": 6743,
      "re\n": 6744,
      "MENT": 6745,
      "content.": 6746,
      "mv": 6747,
      "0.01": 6748,
      "Annot": 6749,
      "commands.": 6750,
      "verbose_name='": 6751,
      "os": 6752,
      "exception.": 6753,
      "batch_size, ": 6754,
      "Cache": 6755,
      "<SCOPE_IN>if self._": 6756,
      "WC(\"": 6757,
      "return '": 6758,
      "<SCOPE_OUT>except Import": 6759,
      "s.value": 6760,
      "Mem": 6761,
      "S)\n": 6762,
      "emoji": 6763,
      "pt_": 6764,
      "https://github.com/": 6765,
      ")s": 6766,
      "A.": 6767,
      "addon": 6768,
      "<SCOPE_IN>with open(": 6769,
      "Bit": 6770,
      "Record": 6771,
      "message = ": 6772,
      " /r``\n": 6773,
      "1e": 6774,
      "fit(": 6775,
      "shutil.": 6776,
      "result = self.": 6777,
      "\\u7701\\u6": 6778,
      "maj": 6779,
      "opt_": 6780,
      "interpol": 6781,
      "Callable": 6782,
      "'re": 6783,
      "ject(": 6784,
      "resource_": 6785,
      "client.get(": 6786,
      "Member": 6787,
      "2', ": 6788,
      "CLI": 6789,
      "coef": 6790,
      "d by ": 6791,
      "s_path": 6792,
      "sqlite": 6793,
      "appro": 6794,
      "transf": 6795,
      "'name': '": 6796,
      "<SCOPE_IN>arg": 6797,
      "lab": 6798,
      " to the ": 6799,
      "trigger": 6800,
      "es_": 6801,
      "Non": 6802,
      "coor": 6803,
      "'][": 6804,
      "pen": 6805,
      "Director": 6806,
      "5_": 6807,
      "exit": 6808,
      "fs": 6809,
      "on the ": 6810,
      "installe": 6811,
      "positive": 6812,
      "2]\n": 6813,
      "Flow": 6814,
      " = {": 6815,
      "connect_": 6816,
      "HttpResponse": 6817,
      "), (25": 6818,
      "1 + ": 6819,
      "_is_": 6820,
      "smo": 6821,
      "service.": 6822,
      "ridgeDomain": 6823,
      "d')\n": 6824,
      "set, ": 6825,
      "coeff": 6826,
      "size_": 6827,
      "obj)\n": 6828,
      "builtin": 6829,
      "/stand": 6830,
      "m\n": 6831,
      "parent.": 6832,
      "(item": 6833,
      "ds": 6834,
      "git_": 6835,
      "_credential": 6836,
      "week": 6837,
      ") for x in ": 6838,
      "detection": 6839,
      "_client_": 6840,
      "(name, ": 6841,
      "0.0, 1": 6842,
      "drop_": 6843,
      "T\n": 6844,
      "for i in range(len(": 6845,
      "Mock()\n": 6846,
      "62": 6847,
      "False):\n": 6848,
      "ArgumentParser": 6849,
      ", b": 6850,
      "cpp_type=": 6851,
      "crypto": 6852,
      "]]:\n": 6853,
      "need": 6854,
      "host, ": 6855,
      "_change": 6856,
      "trun": 6857,
      "_package": 6858,
      "led_": 6859,
      "Inst": 6860,
      "DELE": 6861,
      "output.": 6862,
      "></": 6863,
      "slot": 6864,
      "mob": 6865,
      "<SCOPE_IN>if (": 6866,
      "Programm": 6867,
      "d and ": 6868,
      "d.\n": 6869,
      "supported ": 6870,
      "predict(": 6871,
      ") == '": 6872,
      "ignore_": 6873,
      "executor": 6874,
      "fy ": 6875,
      "_attr": 6876,
      "s=[],\n": 6877,
      "decor": 6878,
      "status": 6879,
      "level=": 6880,
      "HTTP_": 6881,
      "was ": 6882,
      "info(": 6883,
      ".4": 6884,
      "target.": 6885,
      "fire": 6886,
      "befo": 6887,
      "f'{": 6888,
      "executable": 6889,
      "u_": 6890,
      "er',\n": 6891,
      "sha256": 6892,
      "mit(": 6893,
      ")) ": 6894,
      "variant": 6895,
      "print \"": 6896,
      "rect": 6897,
      "Input(": 6898,
      "mode='": 6899,
      "Vector": 6900,
      "WE": 6901,
      "_place": 6902,
      "\"\"\")\n": 6903,
      "_branch": 6904,
      "2, 3": 6905,
      "1', ": 6906,
      "more ": 6907,
      "pretraine": 6908,
      "internal_": 6909,
      "up_": 6910,
      "super().": 6911,
      "[ ": 6912,
      "<SCOPE_IN>f.": 6913,
      "seen": 6914,
      " = None,\n": 6915,
      "provid": 6916,
      "doc_": 6917,
      "' or ": 6918,
      "horiz": 6919,
      "veri": 6920,
      "error(\"": 6921,
      "action=\"": 6922,
      "block.": 6923,
      "UID": 6924,
      "point(": 6925,
      "), (23": 6926,
      "utf8": 6927,
      "tm.assert_": 6928,
      "RUN": 6929,
      "dl": 6930,
      "any ": 6931,
      "ful": 6932,
      "updated_": 6933,
      "wo": 6934,
      "info['": 6935,
      "(name": 6936,
      ",)\n": 6937,
      "Plugin": 6938,
      "at.": 6939,
      "317": 6940,
      "submission": 6941,
      "endpoint_": 6942,
      "limit_": 6943,
      "mod_": 6944,
      "Controll": 6945,
      "'django.contrib.": 6946,
      "<SCOPE_OUT>if __name__ == '__main__':\n": 6947,
      "ator ": 6948,
      "if(": 6949,
      "Language :: ": 6950,
      "100\n": 6951,
      "views.": 6952,
      "<SCOPE_OUT>except Exception:\n": 6953,
      "utdown": 6954,
      "fb": 6955,
      ".delete": 6956,
      "specified ": 6957,
      "iver": 6958,
      "Extra": 6959,
      "kl": 6960,
      "\\x1b": 6961,
      "Region": 6962,
      "s > ": 6963,
      "()).": 6964,
      "8,": 6965,
      "Conv": 6966,
      "num_classe": 6967,
      "ws": 6968,
      "health": 6969,
      "valid ": 6970,
      "Sample": 6971,
      "(node": 6972,
      "<SCOPE_OUT>@pytest.mark.parametrize": 6973,
      "pos": 6974,
      "perm": 6975,
      "<SCOPE_IN>pre": 6976,
      "eq_": 6977,
      "user, ": 6978,
      "index = ": 6979,
      " // ": 6980,
      "<SCOPE_IN>model = ": 6981,
      "(row": 6982,
      "report_": 6983,
      "np.random.": 6984,
      "scheme": 6985,
      " ?????": 6986,
      "categorie": 6987,
      "jav": 6988,
      "z, ": 6989,
      "_polic": 6990,
      "Wrapper": 6991,
      "it()\n": 6992,
      "models import ": 6993,
      "rough": 6994,
      "open('": 6995,
      "escape": 6996,
      "Register": 6997,
      "occ": 6998,
      "uden": 6999,
      "policy": 7000,
      "00 ": 7001,
      "record_": 7002,
      "entry_": 7003,
      "ary.": 7004,
      "Engine": 7005,
      "sphin": 7006,
      "_stack": 7007,
      "_ = ": 7008,
      "arrow": 7009,
      "options=": 7010,
      "Step": 7011,
      "={'": 7012,
      "Spa": 7013,
      "_attribute": 7014,
      "quenti": 7015,
      "_id):\n": 7016,
      "_depth": 7017,
      "', '???'),\n": 7018,
      "s from ": 7019,
      "loader": 7020,
      "txid": 7021,
      "<SCOPE_IN>m": 7022,
      "event(": 7023,
      "s.update(": 7024,
      "TO_": 7025,
      "ffect": 7026,
      "epsi": 7027,
      "swap": 7028,
      "args=": 7029,
      "3, 4, ": 7030,
      "older_": 7031,
      "[x": 7032,
      "utr": 7033,
      "<SCOPE_IN>class ": 7034,
      "if args.": 7035,
      "temperature": 7036,
      "_regist": 7037,
      "priority": 7038,
      "gon": 7039,
      "CH_": 7040,
      "4 + k": 7041,
      "moment": 7042,
      "_name = \"": 7043,
      "stead": 7044,
      "d. ": 7045,
      "main_": 7046,
      "voke": 7047,
      "_start_": 7048,
      " MB'),\n": 7049,
      "VO": 7050,
      "sis_": 7051,
      "short_": 7052,
      "<SCOPE_IN>self.__": 7053,
      "Generate": 7054,
      "00, ": 7055,
      "Buff": 7056,
      "root, ": 7057,
      "Callback": 7058,
      "tt": 7059,
      "Tuple[": 7060,
      "self.assertEquals(": 7061,
      "python.": 7062,
      "associ": 7063,
      "3f": 7064,
      ")')\n": 7065,
      "Z_": 7066,
      "logging.getLogger(": 7067,
      "Stack": 7068,
      "'s\",\n": 7069,
      "}'\n": 7070,
      ": float": 7071,
      "\": False,\n": 7072,
      "linal": 7073,
      "dataset.": 7074,
      "valu": 7075,
      "<SCOPE_OUT>def is_": 7076,
      " + '/": 7077,
      "snapshot": 7078,
      "e+": 7079,
      "id(": 7080,
      "<SCOPE_IN>in": 7081,
      "'src/": 7082,
      "[l": 7083,
      "iod": 7084,
      "an, ": 7085,
      "\"] == \"": 7086,
      "6, 0.": 7087,
      "') and ": 7088,
      "adapter": 7089,
      "duce": 7090,
      "dtypes.": 7091,
      "Asser": 7092,
      "<SCOPE_IN>log.": 7093,
      "arn": 7094,
      "_categor": 7095,
      "public_": 7096,
      "message_": 7097,
      "ing to ": 7098,
      ")\")\n": 7099,
      "d():\n": 7100,
      "date_": 7101,
      "MODEL": 7102,
      "gath": 7103,
      "x=": 7104,
      "02,\n": 7105,
      "group_": 7106,
      "logger.info(\"": 7107,
      "Scope": 7108,
      "from ..": 7109,
      "10, 1": 7110,
      "boolean": 7111,
      "both": 7112,
      "[0, ": 7113,
      "cw": 7114,
      "ja": 7115,
      "_permission": 7116,
      "C.": 7117,
      "x + ": 7118,
      "Unknown": 7119,
      "click.": 7120,
      "=0,\n": 7121,
      "zo": 7122,
      "runtime": 7123,
      "tmpdir": 7124,
      "y')\n": 7125,
      "<SCOPE_IN>raise Exception(\"": 7126,
      "Email": 7127,
      "*m.b19": 7128,
      "Virtual": 7129,
      "-id": 7130,
      "3',\n": 7131,
      "gene": 7132,
      " type": 7133,
      ".setStatus('current')\n": 7134,
      "%d ": 7135,
      "peak": 7136,
      "expect": 7137,
      "remove(": 7138,
      "Sys": 7139,
      "'g": 7140,
      "GRO": 7141,
      "assert": 7142,
      "???????": 7143,
      "localhost": 7144,
      "c5f": 7145,
      "message(": 7146,
      "].append(": 7147,
      "<SCOPE_IN>def test_": 7148,
      "Notification": 7149,
      "forms.": 7150,
      "\\.": 7151,
      "x = self.": 7152,
      "\\x03": 7153,
      "related_": 7154,
      "THeaderProtocol.": 7155,
      "link_": 7156,
      "_por": 7157,
      "letter": 7158,
      "process": 7159,
      "XMM_": 7160,
      "dur": 7161,
      "\\0": 7162,
      "impl": 7163,
      "Conver": 7164,
      "trial": 7165,
      "Mapp": 7166,
      "logging\n": 7167,
      "uniform": 7168,
      "FIL": 7169,
      "Execution": 7170,
      "ymm": 7171,
      "from py": 7172,
      "_data_": 7173,
      "), (28": 7174,
      "array, ": 7175,
      "expr.": 7176,
      "placeholder": 7177,
      "Cy": 7178,
      "room": 7179,
      "area": 7180,
      "numpy(": 7181,
      "T.": 7182,
      "=True),\n": 7183,
      "Clock": 7184,
      "dash": 7185,
      "parser.parse_arg": 7186,
      "en-": 7187,
      "VICE_": 7188,
      "ForeignKey": 7189,
      "409": 7190,
      "segment_": 7191,
      "4_": 7192,
      "Pa": 7193,
      "_function": 7194,
      "ValueError):\n": 7195,
      "Programming ": 7196,
      "nullable": 7197,
      "pytest.fixture": 7198,
      ".replace('": 7199,
      "Basic": 7200,
      "cade": 7201,
      "series_": 7202,
      "(r'^": 7203,
      "large": 7204,
      "[i * 4 + k": 7205,
      "'p": 7206,
      "Hy": 7207,
      "i ": 7208,
      "sed ": 7209,
      "_remove": 7210,
      "shape=": 7211,
      "label=": 7212,
      "*m.b13": 7213,
      "4 ": 7214,
      "Stop": 7215,
      "action='store_true": 7216,
      ")) + ": 7217,
      "__all": 7218,
      "variance": 7219,
      ") :\n": 7220,
      "op_": 7221,
      "decoder_": 7222,
      "Middle": 7223,
      "k)\n": 7224,
      "feed_": 7225,
      "ft": 7226,
      "Error as e:\n": 7227,
      "_type)\n": 7228,
      "STATE_": 7229,
      "ssible": 7230,
      "Cor": 7231,
      "_equal(": 7232,
      "find ": 7233,
      "quires": 7234,
      "Grid": 7235,
      "api/": 7236,
      "d):\n": 7237,
      "data_format": 7238,
      "ray.": 7239,
      "term_": 7240,
      "count.": 7241,
      "sign_": 7242,
      "AU": 7243,
      "dot": 7244,
      "Programming Language :: ": 7245,
      "arc": 7246,
      "cour": 7247,
      "_sk": 7248,
      "', 'zh': u('\\u": 7249,
      "Url": 7250,
      "command(": 7251,
      "_file)\n": 7252,
      "content_type": 7253,
      "lici": 7254,
      "_name):\n": 7255,
      "sort(": 7256,
      "{\"a": 7257,
      " `": 7258,
      "_record": 7259,
      "None(": 7260,
      "s': [": 7261,
      "typing.": 7262,
      "astype(np.": 7263,
      "eno": 7264,
      "r ": 7265,
      "Role": 7266,
      "ual ": 7267,
      "???\"\n": 7268,
      "virtual_": 7269,
      "h.": 7270,
      "list:\n": 7271,
      "backend_": 7272,
      "scen": 7273,
      "<SCOPE_OUT>def __repr__(self):\n": 7274,
      "dispatch": 7275,
      "Jo": 7276,
      "from typing import ": 7277,
      "layout": 7278,
      "Database": 7279,
      "supported": 7280,
      "sympy.": 7281,
      "Plate": 7282,
      "_plugin": 7283,
      "shape[0]": 7284,
      "organization": 7285,
      "cls):\n": 7286,
      "np.ndarray": 7287,
      "[0]['": 7288,
      "main():\n": 7289,
      "<SCOPE_OUT><SCOPE_OUT>class Test": 7290,
      "flags.": 7291,
      "Failed to ": 7292,
      "m)\n": 7293,
      "status.": 7294,
      "environment": 7295,
      "fix, ": 7296,
      "dar": 7297,
      "if \"": 7298,
      "html_": 7299,
      "version__": 7300,
      "2017": 7301,
      "iloc[i * 4 + k": 7302,
      "self.assertNot": 7303,
      "hasattr(self, ": 7304,
      "<SCOPE_OUT><SCOPE_OUT>def test": 7305,
      "t import ": 7306,
      "exit_": 7307,
      "]],\n": 7308,
      "ms_": 7309,
      "ad_": 7310,
      "Error ": 7311,
      "prev_": 7312,
      "ctor.": 7313,
      "end = ": 7314,
      "status == ": 7315,
      "match(": 7316,
      "Helper": 7317,
      "utc": 7318,
      "s = False\n": 7319,
      "required_": 7320,
      "shard_": 7321,
      "us_": 7322,
      "s that ": 7323,
      "alignment": 7324,
      "[n": 7325,
      "Integr": 7326,
      "(url, ": 7327,
      "compose": 7328,
      "extra_": 7329,
      "character": 7330,
      "_on": 7331,
      "bench": 7332,
      "fied": 7333,
      "_sw": 7334,
      "aliase": 7335,
      "target ": 7336,
      "<SCOPE_IN>new": 7337,
      "IC": 7338,
      "MAIN": 7339,
      "dest='": 7340,
      "/{": 7341,
      "k = ": 7342,
      "(self,\n": 7343,
      "), (22": 7344,
      "prote": 7345,
      "save(": 7346,
      "_manager.": 7347,
      "_T": 7348,
      "_snap": 7349,
      "self.is_": 7350,
      "def cons_f": 7351,
      "entry.": 7352,
      "Constraint(cons_f": 7353,
      "f\\x": 7354,
      "File(": 7355,
      "r\n": 7356,
      "code = ": 7357,
      "assert_array_": 7358,
      "autom": 7359,
      "dy": 7360,
      "allback": 7361,
      "client, ": 7362,
      "=2, ": 7363,
      "Cho": 7364,
      "ium": 7365,
      "PR": 7366,
      "w = ": 7367,
      "[i], ": 7368,
      "compati": 7369,
      "router": 7370,
      "Dig": 7371,
      "method, ": 7372,
      ".remove": 7373,
      "'), '": 7374,
      "startswith(\"": 7375,
      "document_": 7376,
      "1: ": 7377,
      "s.extend(": 7378,
      "args):\n": 7379,
      "party": 7380,
      "TE_": 7381,
      "_ph": 7382,
      "inputs, ": 7383,
      "USER_": 7384,
      "estimator": 7385,
      "<SCOPE_OUT>cons": 7386,
      "<SCOPE_OUT>def add_": 7387,
      "ze_": 7388,
      " == 1:\n": 7389,
      "Authentication": 7390,
      "inplace": 7391,
      "current ": 7392,
      "CharField(max_length=": 7393,
      "tage": 7394,
      "estim": 7395,
      "{}/": 7396,
      "<SCOPE_OUT>except ImportError:\n": 7397,
      " error": 7398,
      "1')\n": 7399,
      "may": 7400,
      "DEFIN": 7401,
      "product_": 7402,
      "repeat": 7403,
      "\": None,\n": 7404,
      "ber_": 7405,
      "datetime(": 7406,
      ".txt": 7407,
      "self.get_": 7408,
      "may ": 7409,
      "12, ": 7410,
      "subtype": 7411,
      "nc": 7412,
      "rt_": 7413,
      "params, ": 7414,
      "func, ": 7415,
      "aler": 7416,
      "func(": 7417,
      "<SCOPE_IN>value = ": 7418,
      "str__(self):\n": 7419,
      "values, ": 7420,
      "_distance": 7421,
      "FILE_": 7422,
      "output_dir": 7423,
      "deli": 7424,
      "USE_": 7425,
      "), (29": 7426,
      "safe_": 7427,
      "Cannot ": 7428,
      "DER": 7429,
      "asarray(": 7430,
      "10, ": 7431,
      "sub_": 7432,
      "<SCOPE_IN>s": 7433,
      "j, ": 7434,
      "instr": 7435,
      "\"] == ": 7436,
      "duplic": 7437,
      "ality": 7438,
      "allclose(": 7439,
      "stub": 7440,
      "model\n": 7441,
      "ALI": 7442,
      "_dict[": 7443,
      "SELECT ": 7444,
      "random.randint(": 7445,
      "allen": 7446,
      "params):\n": 7447,
      "UTF": 7448,
      "device_": 7449,
      "meme": 7450,
      "description='": 7451,
      "Validator": 7452,
      "CR": 7453,
      "VE_": 7454,
      "filepath": 7455,
      "register(": 7456,
      "Sty": 7457,
      "y',\n": 7458,
      "%s'": 7459,
      "al(\n": 7460,
      "rendere": 7461,
      "<SCOPE_OUT>except ValueError": 7462,
      "abstractmethod\n": 7463,
      "a-z": 7464,
      "Make": 7465,
      "cted ": 7466,
      "force_": 7467,
      "': 0.": 7468,
      "exc.": 7469,
      "\" not in ": 7470,
      "beam": 7471,
      "sync_": 7472,
      "self.p": 7473,
      "provision": 7474,
      "s}": 7475,
      "json(": 7476,
      " > 0:\n": 7477,
      "properties.": 7478,
      "have": 7479,
      "extr": 7480,
      "<SCOPE_IN>if '": 7481,
      "=True\n": 7482,
      "pygame.": 7483,
      "prepare": 7484,
      "rgb": 7485,
      "SOUR": 7486,
      "\"city_name\": \"???\"\n": 7487,
      "d()\n": 7488,
      ", 0)\n": 7489,
      " = str(": 7490,
      "alche": 7491,
      "other, ": 7492,
      "Process": 7493,
      "self.assertEqual('": 7494,
      "[i] = ": 7495,
      "*m.b16": 7496,
      "audio": 7497,
      "lldb.SB": 7498,
      "=['": 7499,
      "1, '": 7500,
      "_RE": 7501,
      "Note": 7502,
      "alizer(": 7503,
      "DA": 7504,
      "tear": 7505,
      "Base):\n": 7506,
      "<SCOPE_IN>a": 7507,
      "ospf": 7508,
      "<SCOPE_IN>if not isinstance(": 7509,
      "sheet": 7510,
      "Limit": 7511,
      "h5": 7512,
      "app_": 7513,
      "cached_": 7514,
      " | ": 7515,
      "Men": 7516,
      "gre": 7517,
      "scatter": 7518,
      "matplot": 7519,
      "tenv": 7520,
      ": str) -> ": 7521,
      "Hash": 7522,
      "_pack": 7523,
      "query = ": 7524,
      "sine": 7525,
      "range(self.": 7526,
      "XXXX": 7527,
      "BUT": 7528,
      "), (19": 7529,
      "DC": 7530,
      "temp_": 7531,
      "_policy": 7532,
      "-3": 7533,
      "y_pre": 7534,
      "path(": 7535,
      "image = ": 7536,
      "content = ": 7537,
      "Price": 7538,
      "combin": 7539,
      "Parse": 7540,
      ".5": 7541,
      "but": 7542,
      "launch": 7543,
      "version_": 7544,
      "other ": 7545,
      "0\t\t],\n": 7546,
      "FR": 7547,
      "_path(": 7548,
      "[i]\n": 7549,
      "[-1]\n": 7550,
      "Simple": 7551,
      "ter(name=\"": 7552,
      "flavor": 7553,
      "@pulumi.getter(name=\"": 7554,
      "index)\n": 7555,
      "admin.": 7556,
      "hl": 7557,
      "p\n": 7558,
      "s'])\n": 7559,
      "<SCOPE_OUT>def forward(self, ": 7560,
      "proto.": 7561,
      "rpc_": 7562,
      "'86159": 7563,
      "m/": 7564,
      "s is not ": 7565,
      "_parse_": 7566,
      ") == 0:\n": 7567,
      "id': ": 7568,
      "initializer": 7569,
      "7,\n": 7570,
      "Util": 7571,
      "d,\n": 7572,
      "file\n": 7573,
      "loud.": 7574,
      "))).": 7575,
      "Collection": 7576,
      "Usage": 7577,
      "ied": 7578,
      "s_from": 7579,
      "resid": 7580,
      "Begin": 7581,
      "e, ": 7582,
      "2', '": 7583,
      "s with ": 7584,
      "oneof": 7585,
      "_part": 7586,
      "ACE": 7587,
      "inv": 7588,
      "Reals,bounds=(0,": 7589,
      "\"_": 7590,
      "y(\n": 7591,
      "chron": 7592,
      "self._get_": 7593,
      "target, ": 7594,
      "download_": 7595,
      "n):\n": 7596,
      "x509": 7597,
      "shape = ": 7598,
      "(self) -> None:\n": 7599,
      " has ": 7600,
      "config\n": 7601,
      "CONF_": 7602,
      "Request.": 7603,
      "acl": 7604,
      " = params.get(\"": 7605,
      "sorted_": 7606,
      "2\", \"": 7607,
      "2018": 7608,
      "passwor": 7609,
      "ISO": 7610,
      "incre": 7611,
      "None),initialize=0)\n": 7612,
      "regular": 7613,
      "\"name\": \"": 7614,
      "LA": 7615,
      "har": 7616,
      "id.": 7617,
      "torch.Tensor": 7618,
      "List[str": 7619,
      "primary_key": 7620,
      "RM": 7621,
      "fm": 7622,
      "tk": 7623,
      "0.0\n": 7624,
      "doc.": 7625,
      "Description('": 7626,
      "Na": 7627,
      "solver": 7628,
      "PIPE": 7629,
      "icrosof": 7630,
      " = Constraint(expr=   ": 7631,
      "makedirs(": 7632,
      "_recor": 7633,
      "u'\\u": 7634,
      "PES": 7635,
      "template.": 7636,
      "setattr(": 7637,
      "callable": 7638,
      "fetch_": 7639,
      "Conne": 7640,
      "WHER": 7641,
      "BASE_": 7642,
      "Use": 7643,
      "board_": 7644,
      "ally ": 7645,
      " = cms.": 7646,
      "_file_": 7647,
      "address, ": 7648,
      "cluster.": 7649,
      "centage": 7650,
      "margin": 7651,
      "lain": 7652,
      "FP": 7653,
      "____": 7654,
      "instance_": 7655,
      "numeric": 7656,
      "atlas": 7657,
      "ario": 7658,
      "format_": 7659,
      " was ": 7660,
      " D": 7661,
      "ut ": 7662,
      "return True\n": 7663,
      "*m.b22": 7664,
      "\\u7701\\u5": 7665,
      "LOGGER": 7666,
      "Geom": 7667,
      "small": 7668,
      "truth": 7669,
      "mit()\n": 7670,
      "func.": 7671,
      "CHECK": 7672,
      "2 - ": 7673,
      "BACK": 7674,
      "echo": 7675,
      "type == '": 7676,
      "transition": 7677,
      "s(self) -> ": 7678,
      "UPDAT": 7679,
      "[0.": 7680,
      "ware.": 7681,
      "\": [\"": 7682,
      "Environ": 7683,
      "connection.": 7684,
      "Poly": 7685,
      "+'": 7686,
      "-v": 7687,
      "conti": 7688,
      ".cc',\n": 7689,
      "Obj": 7690,
      "argparse.ArgumentParser": 7691,
      "Mac": 7692,
      "skip_": 7693,
      "buffer_": 7694,
      "70": 7695,
      "('name": 7696,
      "user)\n": 7697,
      "ValueError, ": 7698,
      "astype(": 7699,
      "iloc[i * 4 + k - ": 7700,
      "_path,\n": 7701,
      "_context": 7702,
      "virtual": 7703,
      "name:\n": 7704,
      "miz": 7705,
      "200)\n": 7706,
      "betwe": 7707,
      "band": 7708,
      "*= ": 7709,
      "materi": 7710,
      "_namespace": 7711,
      "scrimin": 7712,
      "')]\n": 7713,
      "Scalar": 7714,
      "warnings.warn": 7715,
      "1 - ": 7716,
      "observation": 7717,
      "<SCOPE_OUT><SCOPE_OUT>if __name__ == '__main__':\n": 7718,
      "KEY_": 7719,
      "6,\n": 7720,
      "wall": 7721,
      "stro": 7722,
      "('--": 7723,
      "nested_": 7724,
      "bottom": 7725,
      "401": 7726,
      "encryption": 7727,
      "{% ": 7728,
      "seed(": 7729,
      "output\n": 7730,
      "scale_": 7731,
      "3,3,3,3,": 7732,
      "second_": 7733,
      "async def test_": 7734,
      "feedback": 7735,
      "(lambda ": 7736,
      ".\"\n": 7737,
      "=_": 7738,
      "frequ": 7739,
      ")}\n": 7740,
      "ret\n": 7741,
      "msg.": 7742,
      "_mon": 7743,
      "offset_": 7744,
      "actual_": 7745,
      "mgr.": 7746,
      "_size)\n": 7747,
      "field(": 7748,
      "salt.": 7749,
      "_name = '": 7750,
      "kwargs)\n": 7751,
      "parser.add_argument(\"--": 7752,
      "blank=True, ": 7753,
      "epsilon": 7754,
      "cs": 7755,
      "attemp": 7756,
      "main ": 7757,
      "JO": 7758,
      "-1:\n": 7759,
      "s': {'": 7760,
      "REQUEST": 7761,
      "Cop": 7762,
      "capture": 7763,
      "axis=0)\n": 7764,
      "I ": 7765,
      "URI": 7766,
      "s != ": 7767,
      "ABLE_": 7768,
      "inner_": 7769,
      "on_delete": 7770,
      "shutdown": 7771,
      "labels, ": 7772,
      "Stat": 7773,
      "body = ": 7774,
      "rece": 7775,
      ", 'str')\n": 7776,
      "amer": 7777,
      "the\n": 7778,
      "\")),\n": 7779,
      "proba": 7780,
      "binary_": 7781,
      ": Optional[pulumi.Input[str": 7782,
      "<SCOPE_IN>del ": 7783,
      " = ['": 7784,
      "upload_": 7785,
      "array_ops.": 7786,
      "Error,\n": 7787,
      "BatchNorm": 7788,
      " [": 7789,
      "': [\n": 7790,
      "_parse": 7791,
      "fix_": 7792,
      "{}):\n": 7793,
      " = Custom": 7794,
      "pb": 7795,
      "Security": 7796,
      "ctypes.c_": 7797,
      ",,": 7798,
      "norm_": 7799,
      "DD": 7800,
      "Lin": 7801,
      "_internal": 7802,
      "(g": 7803,
      ".from_": 7804,
      "xl": 7805,
      "[2]\n": 7806,
      "debug('": 7807,
      "cmd('": 7808,
      "'): 10,\n": 7809,
      "almost_": 7810,
      "armv": 7811,
      "Middleware": 7812,
      "7\n": 7813,
      "'\\n": 7814,
      "ae": 7815,
      "best_": 7816,
      "]] = ": 7817,
      "Manage": 7818,
      ">')\n": 7819,
      "content)\n": 7820,
      "response.status_code, ": 7821,
      "*,\n": 7822,
      "127.": 7823,
      "expected, ": 7824,
      "mock.patch('": 7825,
      "rup": 7826,
      "dence": 7827,
      "_mapping": 7828,
      "', type=str, ": 7829,
      "review": 7830,
      "<SCOPE_IN>l": 7831,
      "cast_": 7832,
      "open(\"": 7833,
      "SION_": 7834,
      ": The ": 7835,
      "(X": 7836,
      "9,": 7837,
      "model)\n": 7838,
      "respon": 7839,
      "GEN": 7840,
      "asc": 7841,
      "API_": 7842,
      "This is ": 7843,
      "0.0.1": 7844,
      "s\"][\"": 7845,
      "trip": 7846,
      "ui.": 7847,
      "SET_": 7848,
      "_base": 7849,
      "fd": 7850,
      "twe": 7851,
      "transform_": 7852,
      "b\n": 7853,
      "worker_": 7854,
      "'src/core/": 7855,
      "ogram": 7856,
      "ertificate": 7857,
      "s']:\n": 7858,
      "<SCOPE_OUT><SCOPE_OUT>@property\n": 7859,
      "(2, ": 7860,
      "tele": 7861,
      "QtWidget": 7862,
      "x,\n": 7863,
      "seline": 7864,
      "Polic": 7865,
      "thumb": 7866,
      "matrix_": 7867,
      "reverse('": 7868,
      "(tf.": 7869,
      "request = ": 7870,
      "df[": 7871,
      "correct": 7872,
      "_argument": 7873,
      "s.com/": 7874,
      "LED": 7875,
      "UNC": 7876,
      "stock": 7877,
      "sume": 7878,
      "oprot.write": 7879,
      "et.": 7880,
      "x,": 7881,
      " is not None\n": 7882,
      "tree.": 7883,
      "d\")\n": 7884,
      "Reals,bounds=(0,None),initialize=0)\n": 7885,
      "200, ": 7886,
      "msg = ": 7887,
      "description=\"": 7888,
      "rate_": 7889,
      "_inte": 7890,
      "66.0": 7891,
      "(3": 7892,
      "colo": 7893,
      "0).": 7894,
      "10000": 7895,
      "result['": 7896,
      "datas": 7897,
      "which ": 7898,
      "(self, value):\n": 7899,
      "_path):\n": 7900,
      "default=\"": 7901,
      "cross_": 7902,
      "(img": 7903,
      "0,\"": 7904,
      "nt": 7905,
      "seu": 7906,
      "value=": 7907,
      "long_": 7908,
      "y,\n": 7909,
      "requirement": 7910,
      "enable_": 7911,
      "MUL": 7912,
      "jpg": 7913,
      "Set(": 7914,
      "df, ": 7915,
      "linalg.": 7916,
      "end=": 7917,
      "socket": 7918,
      "_conne": 7919,
      "\"type\": \"": 7920,
      "(q": 7921,
      "repl": 7922,
      "visu": 7923,
      "axis ": 7924,
      "args\n": 7925,
      "), (16": 7926,
      "rule_": 7927,
      "CONF": 7928,
      "Area": 7929,
      "resu": 7930,
      "(**": 7931,
      "_pad": 7932,
      "Miss": 7933,
      "Ph": 7934,
      "DEN": 7935,
      ".Get": 7936,
      "))))\n": 7937,
      "args:\n": 7938,
      "evaluate": 7939,
      ",))\n": 7940,
      "ao": 7941,
      "id):\n": 7942,
      "services.": 7943,
      "s[3": 7944,
      "_disk": 7945,
      "floor": 7946,
      "VL": 7947,
      "': 1,\n": 7948,
      "token_": 7949,
      "img = ": 7950,
      "S:\n": 7951,
      "square": 7952,
      "ann": 7953,
      " for the ": 7954,
      "9, 7.": 7955,
      "Global": 7956,
      "erge": 7957,
      "SPON": 7958,
      "limiter": 7959,
      "(w": 7960,
      "1,\"": 7961,
      "key\n": 7962,
      "_effect": 7963,
      "\") ": 7964,
      "->": 7965,
      "tenant_": 7966,
      "quality": 7967,
      "green": 7968,
      "desi": 7969,
      "resolution": 7970,
      " for x in ": 7971,
      "binary": 7972,
      "logging.getLogger(__name__)\n": 7973,
      "rv": 7974,
      "STE": 7975,
      "aug": 7976,
      "61": 7977,
      "private_": 7978,
      "BLOC": 7979,
      "s(),\n": 7980,
      "_bit": 7981,
      "5, 0.": 7982,
      "Enter": 7983,
      "<SCOPE_IN>out": 7984,
      "], '": 7985,
      "res\n": 7986,
      "message, ": 7987,
      "L2": 7988,
      "com.": 7989,
      "export": 7990,
      "Remove": 7991,
      "optimizer.": 7992,
      "Programming Language :: Python ": 7993,
      "Long": 7994,
      "_name(": 7995,
      "_dist": 7996,
      "y import ": 7997,
      "100, ": 7998,
      "_rule": 7999,
      "digest": 8000,
      "headers)\n": 8001,
      "serialized_options=None, ": 8002,
      "Programming Language :: Python :: ": 8003,
      "8\\x": 8004,
      "XML": 8005,
      "s_file": 8006,
      "_pol": 8007,
      "response(": 8008,
      "VALID": 8009,
      "MET": 8010,
      "axis=1)\n": 8011,
      "cloud_": 8012,
      "KEN": 8013,
      "atar": 8014,
      "s\": {\n": 8015,
      "'s": 8016,
      "': u'": 8017,
      "__version__": 8018,
      "shar": 8019,
      "background": 8020,
      "warm": 8021,
      "tx.": 8022,
      "name ": 8023,
      "tests.": 8024,
      "Exception(": 8025,
      "ATTR_": 8026,
      "bon": 8027,
      "hum": 8028,
      "terion": 8029,
      "out_channel": 8030,
      "Y, ": 8031,
      "json()\n": 8032,
      "legac": 8033,
      "attachment": 8034,
      "Sim": 8035,
      "mc": 8036,
      "return [": 8037,
      "inten": 8038,
      "by(": 8039,
      " = Q": 8040,
      "None, '": 8041,
      "bit_": 8042,
      "roi": 8043,
      "\" : ": 8044,
      "15, ": 8045,
      "CHAN": 8046,
      "activate": 8047,
      ", 'str'),\n": 8048,
      "!!": 8049,
      "MAR": 8050,
      "Main": 8051,
      "id\":": 8052,
      "), (26": 8053,
      "show()\n": 8054,
      "VAR": 8055,
      "candidate": 8056,
      " = argparse.ArgumentParser": 8057,
      "s.pop": 8058,
      "ling": 8059,
      "atol": 8060,
      "digit": 8061,
      "s = len(": 8062,
      "_data(": 8063,
      ":,": 8064,
      "read_csv": 8065,
      ".cloud.": 8066,
      "authorize": 8067,
      "Component": 8068,
      "Game": 8069,
      "N, ": 8070,
      "bug_": 8071,
      "Error as ": 8072,
      "internal": 8073,
      ".field": 8074,
      "c/": 8075,
      "change_": 8076,
      "304": 8077,
      "c71": 8078,
      "Loader": 8079,
      "ds_": 8080,
      "Address": 8081,
      "lv": 8082,
      "type.": 8083,
      "agent.": 8084,
      "tensor(": 8085,
      "859": 8086,
      "s = {\"": 8087,
      "test/": 8088,
      "Event(": 8089,
      "GL": 8090,
      "to be ": 8091,
      "``AVX512": 8092,
      "start_time": 8093,
      "ticker": 8094,
      "random_state": 8095,
      "allenge": 8096,
      "S-": 8097,
      "tb": 8098,
      "s_with_": 8099,
      "join(\n": 8100,
      "identifi": 8101,
      "': 'True'}),\n": 8102,
      "incip": 8103,
      "chro": 8104,
      "0001": 8105,
      "_inst": 8106,
      "), (32": 8107,
      "Generator": 8108,
      "Handler(": 8109,
      "nee": 8110,
      "got ": 8111,
      "argument_": 8112,
      ", x": 8113,
      "very": 8114,
      "import time\n": 8115,
      "svp": 8116,
      "datalo": 8117,
      "ference_": 8118,
      "reduce_": 8119,
      "<SCOPE_OUT>except KeyError:\n": 8120,
      "SY": 8121,
      "line, ": 8122,
      "subnet": 8123,
      "append_": 8124,
      "<SCOPE_IN>parser": 8125,
      "var_": 8126,
      "256, ": 8127,
      "cmd, ": 8128,
      "cc_": 8129,
      "d/": 8130,
      "locale": 8131,
      ") or (": 8132,
      "1=": 8133,
      "card": 8134,
      "5 ": 8135,
      "vout": 8136,
      "s.B": 8137,
      "hikar": 8138,
      "\", [": 8139,
      "AUTH": 8140,
      "\", None)\n": 8141,
      "codes.zip', '": 8142,
      "labels.zip', '": 8143,
      "aussi": 8144,
      "event ": 8145,
      "records_codes.zip', '": 8146,
      "records_labels.zip', '": 8147,
      "context)\n": 8148,
      "exc_info": 8149,
      "Builder": 8150,
      "AGER": 8151,
      "ida": 8152,
      "\" and ": 8153,
      "Constraint": 8154,
      "height, ": 8155,
      "return False\n": 8156,
      "import logging\n": 8157,
      "latform": 8158,
      "Assertion": 8159,
      "im_": 8160,
      "1, \"": 8161,
      "Raw": 8162,
      "giv": 8163,
      "GC": 8164,
      "s':\n": 8165,
      "[1,": 8166,
      "external_": 8167,
      "Tit": 8168,
      "cy_": 8169,
      "p(": 8170,
      "s_from_": 8171,
      "TYPES": 8172,
      "s_for_": 8173,
      "MSG_": 8174,
      "third_": 8175,
      "rng": 8176,
      "struct_": 8177,
      "expan": 8178,
      "axis, ": 8179,
      "e-01,\n": 8180,
      "2c": 8181,
      "Fin": 8182,
      "Password": 8183,
      "if is_": 8184,
      "s_on": 8185,
      "Sequenti": 8186,
      "x, y, ": 8187,
      "Skip": 8188,
      "STOR": 8189,
      "pulumi.Input[": 8190,
      "2\",\n": 8191,
      "getattr(self, ": 8192,
      "Annotation": 8193,
      "hint": 8194,
      "Last": 8195,
      " in self._": 8196,
      "_slice": 8197,
      "running_": 8198,
      "CK": 8199,
      "tivity": 8200,
      "upgrade": 8201,
      "part_": 8202,
      "25, ": 8203,
      "[idx": 8204,
      "le ": 8205,
      "_input(": 8206,
      "ptr": 8207,
      "kernel_size": 8208,
      "non-": 8209,
      ")}": 8210,
      "text=\"": 8211,
      "StringIO": 8212,
      "Number of ": 8213,
      "-type": 8214,
      "2e": 8215,
      "SUB": 8216,
      "f', ": 8217,
      "o = ": 8218,
      "train_data": 8219,
      "_none": 8220,
      "CPU": 8221,
      ".json": 8222,
      " = 2\n": 8223,
      "WORD": 8224,
      "<SCOPE_IN>url": 8225,
      "port ": 8226,
      "info = ": 8227,
      "memeber_": 8228,
      "2',\n": 8229,
      "dilation": 8230,
      "mize": 8231,
      "UNI": 8232,
      "Almost": 8233,
      "_start": 8234,
      "OFF": 8235,
      "so ": 8236,
      "description:\n": 8237,
      "lk": 8238,
      "Container": 8239,
      "hikari.": 8240,
      "\"})\n": 8241,
      "s = True\n": 8242,
      "<SCOPE_OUT><SCOPE_OUT>def __": 8243,
      "msg, ": 8244,
      "field ": 8245,
      ")s ": 8246,
      "Credential": 8247,
      "code(": 8248,
      "req.": 8249,
      "hidden_state": 8250,
      "3D": 8251,
      "cov": 8252,
      "sqlalche": 8253,
      "Zero": 8254,
      "': 0,\n": 8255,
      "bool(": 8256,
      "m-": 8257,
      "classifi": 8258,
      "[index": 8259,
      "q = ": 8260,
      "import py": 8261,
      "          ": 8262,
      "Message(": 8263,
      "secure": 8264,
      "EVEX.": 8265,
      "Audi": 8266,
      "2b": 8267,
      "3d": 8268,
      "self.set_": 8269,
      "directory ": 8270,
      "BUIL": 8271,
      "G.": 8272,
      "Mis": 8273,
      "with self.": 8274,
      "h = ": 8275,
      "s\"] = ": 8276,
      "CODE": 8277,
      "inspe": 8278,
      "_init_": 8279,
      "occup": 8280,
      "Sec": 8281,
      "x, y": 8282,
      "_file, ": 8283,
      ", 1, 2, ": 8284,
      "+)": 8285,
      "formatter": 8286,
      "generic": 8287,
      "STATUS_": 8288,
      "ascii": 8289,
      " + self.": 8290,
      "' : '": 8291,
      "Config(": 8292,
      "<SCOPE_IN>global ": 8293,
      "Rsvp": 8294,
      "3, 2": 8295,
      "_contain": 8296,
      " = np.random.": 8297,
      "(1.": 8298,
      "cator": 8299,
      "s = '": 8300,
      "TIMEOUT": 8301,
      "wrap_": 8302,
      " = CustomConstraint(cons_f": 8303,
      "fs.": 8304,
      "000": 8305,
      "lower()\n": 8306,
      "surface": 8307,
      "2-": 8308,
      "302": 8309,
      "required ": 8310,
      "keras.layers.": 8311,
      "-= ": 8312,
      "given": 8313,
      "activity": 8314,
      "resources": 8315,
      "list.": 8316,
      "flake": 8317,
      "ther ": 8318,
      "``EVEX.": 8319,
      "stats.": 8320,
      "DOMAIN": 8321,
      "fri": 8322,
      "non_": 8323,
      "s)))\n": 8324,
      "mention": 8325,
      "frame.": 8326,
      "onymo": 8327,
      "Registr": 8328,
      "=10, ": 8329,
      "signed_": 8330,
      "self.add_": 8331,
      "mov": 8332,
      "_init": 8333,
      "Identity": 8334,
      "\") as ": 8335,
      "Del": 8336,
      "loy": 8337,
      "commen": 8338,
      "python_": 8339,
      "getattr": 8340,
      "Lock": 8341,
      "sql_": 8342,
      "RP": 8343,
      "ylabel": 8344,
      "int,\n": 8345,
      "Many": 8346,
      "GeomPlate": 8347,
      "t):\n": 8348,
      "authenti": 8349,
      "match_": 8350,
      "editor": 8351,
      "<SCOPE_IN>g": 8352,
      "constant_": 8353,
      "method(": 8354,
      "Hook": 8355,
      "browser": 8356,
      "base64": 8357,
      "version=": 8358,
      "1666666666": 8359,
      "Scale": 8360,
      "centr": 8361,
      "50, ": 8362,
      "prog": 8363,
      "replacement": 8364,
      "Integer32": 8365,
      "1(": 8366,
      "remain": 8367,
      "coverage": 8368,
      "comment ": 8369,
      "cur_": 8370,
      "\\x12\\x": 8371,
      "serializers.": 8372,
      "Empty": 8373,
      "orph": 8374,
      "geometry": 8375,
      "df = pd.": 8376,
      "side_effect": 8377,
      "previous_": 8378,
      "[\"name": 8379,
      ".call_": 8380,
      "_list = ": 8381,
      "[0, 1": 8382,
      "_process_": 8383,
      "s.Q": 8384,
      "<SCOPE_OUT>except (": 8385,
      "concatenate": 8386,
      "decoder": 8387,
      "static_": 8388,
      ".update(": 8389,
      "with self.assertRaises(": 8390,
      "True),\n": 8391,
      "TOKEN": 8392,
      "rating": 8393,
      "ROOT": 8394,
      "Section": 8395,
      "MAX": 8396,
      "NOT_": 8397,
      "vr": 8398,
      "RESPON": 8399,
      " = c": 8400,
      "<SCOPE_OUT><SCOPE_OUT><SCOPE_OUT>else:\n": 8401,
      "rpc.": 8402,
      "0\", \"": 8403,
      "][0]": 8404,
      "xyz": 8405,
      "s = _": 8406,
      "(r\"": 8407,
      "replace(": 8408,
      ")) == ": 8409,
      "_set": 8410,
      "`\n": 8411,
      "leaf": 8412,
      "BE": 8413,
      " - m.x": 8414,
      "memor": 8415,
      "ch ": 8416,
      "do ": 8417,
      "_type\n": 8418,
      "Move": 8419,
      "continu": 8420,
      "key):\n": 8421,
      "photo": 8422,
      "utx": 8423,
      "Type, ": 8424,
      "history_": 8425,
      "depend": 8426,
      "literal": 8427,
      "A-Z": 8428,
      "'<": 8429,
      "outcome": 8430,
      "FAI": 8431,
      "selected": 8432,
      "EVEX_V": 8433,
      "timedelta(": 8434,
      "Pipeline": 8435,
      "_button": 8436,
      "(f)\n": 8437,
      "38.": 8438,
      "'S": 8439,
      "obs_": 8440,
      "s else ": 8441,
      "name]\n": 8442,
      "Product": 8443,
      "rase": 8444,
      "Definition": 8445,
      "Opti": 8446,
      "JECT_": 8447,
      "ly.": 8448,
      "visor": 8449,
      "SES": 8450,
      " = re.compile": 8451,
      "_bias": 8452,
      "2}": 8453,
      "INST": 8454,
      "start=": 8455,
      "tk.": 8456,
      "Active": 8457,
      "hidden_": 8458,
      "edit_": 8459,
      "s.append('": 8460,
      "clar": 8461,
      "proxy": 8462,
      "_full": 8463,
      "call_": 8464,
      "cert_": 8465,
      "%r": 8466,
      "115": 8467,
      "dx": 8468,
      "resul": 8469,
      "nn.Module):\n": 8470,
      "Guang": 8471,
      "degree": 8472,
      "s) > ": 8473,
      "s[:, ": 8474,
      "WHERE ": 8475,
      "dynamic": 8476,
      "sb": 8477,
      "deleted": 8478,
      "199": 8479,
      "WORK": 8480,
      "<SCOPE_OUT>if __name__ == \"__main__\":\n": 8481,
      "Not ": 8482,
      "@pytest.mark.parametrize": 8483,
      "tection": 8484,
      " * self.": 8485,
      "\\u5e7f": 8486,
      "lerate": 8487,
      "y/": 8488,
      "subscription_id": 8489,
      "Succes": 8490,
      "Accept": 8491,
      "bundle": 8492,
      "mn": 8493,
      "this": 8494,
      "import json\n": 8495,
      "security_group": 8496,
      "PH": 8497,
      "_map = {\n": 8498,
      "%H": 8499,
      "ko": 8500,
      "ilar": 8501,
      "ARG": 8502,
      "l)\n": 8503,
      "sid": 8504,
      "Dataset(": 8505,
      "er.get_": 8506,
      "(?:": 8507,
      "vertice": 8508,
      "ficient": 8509,
      "Agent": 8510,
      "_log": 8511,
      "mble": 8512,
      "azure-": 8513,
      "BIN": 8514,
      "TC": 8515,
      "0.7": 8516,
      "<SCOPE_IN>\"\"\" ": 8517,
      "format(": 8518,
      "missing_": 8519,
      "pickle": 8520,
      "MANAGER": 8521,
      "motion": 8522,
      "*m.b12": 8523,
      "given ": 8524,
      "op, ": 8525,
      "sp.": 8526,
      "perc": 8527,
      "2),\n": 8528,
      "seek": 8529,
      "ster": 8530,
      " + m.b": 8531,
      "row in ": 8532,
      "<SCOPE_IN>pulumi.set(__self__, \"": 8533,
      "QtWidgets.Q": 8534,
      "`, ": 8535,
      "text/": 8536,
      ":\", ": 8537,
      "a\", \"": 8538,
      "px": 8539,
      "mime": 8540,
      "subtypeSpec": 8541,
      "f\n": 8542,
      "s}\n": 8543,
      "s_dir": 8544,
      " in [": 8545,
      ": Optional[str] = None\n": 8546,
      "sys": 8547,
      "A, ": 8548,
      "s = {": 8549,
      "can be ": 8550,
      "', ['": 8551,
      "submit": 8552,
      "*m.b10": 8553,
      "operator.": 8554,
      " -= ": 8555,
      "_item": 8556,
      "Condition": 8557,
      "!')\n": 8558,
      "SK": 8559,
      "ree ": 8560,
      "image, ": 8561,
      "method='": 8562,
      "orient": 8563,
      "lax.": 8564,
      "classes": 8565,
      "idx = ": 8566,
      "spac": 8567,
      "linenum": 8568,
      "_diff": 8569,
      "<SCOPE_OUT>def test_get_": 8570,
      "rr": 8571,
      "asset_": 8572,
      "import re\n": 8573,
      " == 0)\n": 8574,
      "fields=[\n": 8575,
      "ABC": 8576,
      "console": 8577,
      "]], ": 8578,
      "forme": 8579,
      "base_url": 8580,
      "optimize": 8581,
      "End()\n": 8582,
      "ring": 8583,
      "no-": 8584,
      "volume_": 8585,
      "Dense": 8586,
      "dt.": 8587,
      "lib/": 8588,
      "))]\n": 8589,
      "site.": 8590,
      "solve": 8591,
      "'  ": 8592,
      " + ' ": 8593,
      "FC": 8594,
      "_path\n": 8595,
      "width = ": 8596,
      "'4": 8597,
      "Ter": 8598,
      ", 14": 8599,
      "ext.": 8600,
      "context):\n": 8601,
      "handler(": 8602,
      "Current": 8603,
      "setter\n": 8604,
      ") -> bool:\n": 8605,
      "ALL_": 8606,
      "hostname": 8607,
      "charge": 8608,
      "<SCOPE_OUT>if (": 8609,
      "(1,": 8610,
      "adjust": 8611,
      " P": 8612,
      "3))\n": 8613,
      "str,\n": 8614,
      "spati": 8615,
      "occur": 8616,
      "flush()\n": 8617,
      "Cfg": 8618,
      "regex": 8619,
      "Mask": 8620,
      ": {}": 8621,
      "classifier": 8622,
      "entropy": 8623,
      "from tensorflow.": 8624,
      "dense": 8625,
      "requires_grad": 8626,
      "<SCOPE_IN>i": 8627,
      ":.": 8628,
      "self.n": 8629,
      ": %s\" % ": 8630,
      "_pas": 8631,
      "time(": 8632,
      "appli": 8633,
      "ject ": 8634,
      "\" \\\n": 8635,
      "domain.": 8636,
      "_path_": 8637,
      "_size\n": 8638,
      "d(self):\n": 8639,
      "q, ": 8640,
      "exact": 8641,
      "_type='": 8642,
      "/', ": 8643,
      "={\"": 8644,
      "Bod": 8645,
      "<SCOPE_IN>v": 8646,
      "<SCOPE_OUT>@pytest.mark.": 8647,
      "_key=": 8648,
      "Style": 8649,
      "land": 8650,
      "pur": 8651,
      "alway": 8652,
      "keys(": 8653,
      "ither ": 8654,
      "().sub": 8655,
      "Script": 8656,
      "<SCOPE_OUT>raise ": 8657,
      "(x_": 8658,
      "?????????": 8659,
      "<SCOPE_OUT>_": 8660,
      "topo": 8661,
      "indices": 8662,
      "member_": 8663,
      " + \"/": 8664,
      " + m.x": 8665,
      "%s' ": 8666,
      "tag_": 8667,
      "settings_": 8668,
      "TRAN": 8669,
      "max_length': '": 8670,
      "polling": 8671,
      "1\")\n": 8672,
      "path_format": 8673,
      " = self.__": 8674,
      "start_date": 8675,
      "errno": 8676,
      "Wa": 8677,
      "config):\n": 8678,
      "obj_": 8679,
      "__(": 8680,
      "class = ": 8681,
      "filename = ": 8682,
      "strip().": 8683,
      "TEMPL": 8684,
      "ger.": 8685,
      "live": 8686,
      "<SCOPE_OUT>def re": 8687,
      "version = ": 8688,
      "         ": 8689,
      "<SCOPE_IN>__": 8690,
      "unpack": 8691,
      "job_": 8692,
      "Foo": 8693,
      "nest": 8694,
      "3/": 8695,
      "<SCOPE_IN>return [": 8696,
      "\", \"--": 8697,
      "_type(": 8698,
      "label = ": 8699,
      "iterable": 8700,
      "manager": 8701,
      "differen": 8702,
      "itude": 8703,
      "execute_": 8704,
      "Func": 8705,
      "Unit/": 8706,
      "mand": 8707,
      "tq": 8708,
      "ation\n": 8709,
      "for line in ": 8710,
      "_conf": 8711,
      " version": 8712,
      "Magic": 8713,
      "tour": 8714,
      "rtol": 8715,
      "\"), \"": 8716,
      "e))\n": 8717,
      "demo": 8718,
      "return (": 8719,
      "FIEL": 8720,
      "energ": 8721,
      "compatible": 8722,
      "2'\n": 8723,
      "s=True, ": 8724,
      "commit_": 8725,
      "color=": 8726,
      "replace(\"": 8727,
      "Sequence[": 8728,
      "AF": 8729,
      "encryp": 8730,
      "ed, ": 8731,
      "abilitie": 8732,
      "} {": 8733,
      "right ": 8734,
      "access_token": 8735,
      "discor": 8736,
      "1, 2, 3": 8737,
      "IS_": 8738,
      "xlabel": 8739,
      "assert np.": 8740,
      "_edi": 8741,
      "pkg_": 8742,
      "momentum": 8743,
      "1)": 8744,
      "int:\n": 8745,
      "line ": 8746,
      "Debug": 8747,
      "flask": 8748,
      "0',\n": 8749,
      "Sha": 8750,
      "_price": 8751,
      "Store": 8752,
      "False:\n": 8753,
      "assert_equal": 8754,
      "EXT": 8755,
      "classification": 8756,
      "state)\n": 8757,
      "library": 8758,
      "who": 8759,
      " = {\"": 8760,
      "Core.": 8761,
      "train.": 8762,
      "input_id": 8763,
      "only\")\n": 8764,
      "Display": 8765,
      "0', '": 8766,
      "hit": 8767,
      "baseline": 8768,
      " {0": 8769,
      "VMWARE": 8770,
      "'value": 8771,
      "address(": 8772,
      "_list_": 8773,
      "env, ": 8774,
      "type(subtypeSpec": 8775,
      "type(subtypeSpec=": 8776,
      "np_": 8777,
      "dest_": 8778,
      ": (": 8779,
      "ReLU": 8780,
      "<SCOPE_IN>if i": 8781,
      "channel_": 8782,
      ": Optional[str] = None,\n": 8783,
      "FROM ": 8784,
      "path_format_argument": 8785,
      "uch": 8786,
      "error('": 8787,
      "runner.": 8788,
      "114": 8789,
      "TED_": 8790,
      "BaxA_": 8791,
      "_meta": 8792,
      "dh": 8793,
      "jax": 8794,
      "0], [": 8795,
      "day_": 8796,
      "\"v6.": 8797,
      "jar": 8798,
      "parag": 8799,
      "contact": 8800,
      "@pulumi.getter\n": 8801,
      "atype": 8802,
      "Los": 8803,
      ") + '": 8804,
      "TypeError, ": 8805,
      "azure.": 8806,
      "CUR": 8807,
      "self)\n": 8808,
      "('id": 8809,
      "rho": 8810,
      "key.": 8811,
      "error)\n": 8812,
      "parse(": 8813,
      "_generator": 8814,
      "os.path.isfile(": 8815,
      "s = (\n": 8816,
      "grid_": 8817,
      "req = ": 8818,
      "sfull": 8819,
      "func = ": 8820,
      "proc": 8821,
      "pull": 8822,
      "self.node": 8823,
      " in zip(": 8824,
      "lower_": 8825,
      "mask_": 8826,
      "std_": 8827,
      "clu": 8828,
      "self._config.": 8829,
      "expect_": 8830,
      "200\n": 8831,
      "return _lldb.SB": 8832,
      "secret_": 8833,
      "P ": 8834,
      "ato": 8835,
      "getitem": 8836,
      "self.assertAll": 8837,
      "cogn": 8838,
      "each ": 8839,
      "parser.parse_args()\n": 8840,
      "().subtype(subtypeSpec=": 8841,
      "-36": 8842,
      "Package": 8843,
      "gan": 8844,
      "s]": 8845,
      "s / ": 8846,
      "rand_": 8847,
      "[2])\n": 8848,
      "\\u5dde\\u5e02')},\n": 8849,
      "GO": 8850,
      "train, ": 8851,
      "Generic": 8852,
      "gp": 8853,
      "tur": 8854,
      "os.get": 8855,
      "phi": 8856,
      "color='": 8857,
      "'86158": 8858,
      ":%M": 8859,
      "_rep": 8860,
      "s': [\n": 8861,
      "(1, 1": 8862,
      "ping_": 8863,
      "d', '": 8864,
      "any_": 8865,
      "_plan": 8866,
      "ixel": 8867,
      "=dict(": 8868,
      "self: ": 8869,
      "thing": 8870,
      "== '": 8871,
      "sent_": 8872,
      "Segment": 8873,
      "Interval": 8874,
      "n ": 8875,
      "dest=\"": 8876,
      "7,7,": 8877,
      "does not exist": 8878,
      "<SCOPE_OUT>except ValueError:\n": 8879,
      "ea": 8880,
      "_close": 8881,
      "' * ": 8882,
      "TRAIN": 8883,
      "<SCOPE_IN>if not self.": 8884,
      "666666": 8885,
      "standard_": 8886,
      "UM": 8887,
      "Y ": 8888,
      "gc": 8889,
      "Width": 8890,
      "Manager": 8891,
      "iprot.read": 8892,
      "S,\n": 8893,
      "unity": 8894,
      "_type,\n": 8895,
      "certificate": 8896,
      "AIR": 8897,
      "bootstra": 8898,
      "wron": 8899,
      "Medi": 8900,
      ".deep": 8901,
      "remote_": 8902,
      "Accelerate": 8903,
      "(path": 8904,
      "Tri": 8905,
      "olver": 8906,
      "_go": 8907,
      "ORI": 8908,
      "_timeout": 8909,
      "circle": 8910,
      "FN": 8911,
      "lc": 8912,
      "s.\")\n": 8913,
      "exchange": 8914,
      "sort": 8915,
      "Mapping": 8916,
      "for key, ": 8917,
      "d(self.": 8918,
      "s.get(\"": 8919,
      "<SCOPE_OUT>return self._": 8920,
      "Backend": 8921,
      "transfer_": 8922,
      "4b": 8923,
      "hic": 8924,
      "res, ": 8925,
      "supported_": 8926,
      "maybe": 8927,
      ":])\n": 8928,
      "ham": 8929,
      "sure_": 8930,
      "tmp_": 8931,
      "7\\x": 8932,
      ">=": 8933,
      "T = ": 8934,
      "': (0x": 8935,
      "(4": 8936,
      "1\", ": 8937,
      "select ": 8938,
      "GET_": 8939,
      "horizont": 8940,
      "<SCOPE_IN>main()\n": 8941,
      "(3, ": 8942,
      "Series(": 8943,
      "data_file": 8944,
      "Instruction": 8945,
      "apply": 8946,
      "_repo": 8947,
      "_partition": 8948,
      "method = ": 8949,
      "filename):\n": 8950,
      "count = 0\n": 8951,
      "') as f:\n": 8952,
      "Mini": 8953,
      "statement": 8954,
      " import *\n": 8955,
      ")\"\n": 8956,
      "DR": 8957,
      "s_with": 8958,
      "method == ": 8959,
      "<SCOPE_IN>from sympy.": 8960,
      "artifact": 8961,
      "HI": 8962,
      "state\n": 8963,
      "00:00": 8964,
      "--------------------------------": 8965,
      "cwd": 8966,
      "retry": 8967,
      "size=(": 8968,
      "1, 0.": 8969,
      "example.com": 8970,
      ": 8, 9": 8971,
      "ish": 8972,
      "meter": 8973,
      "resource.": 8974,
      "Json": 8975,
      "pipe": 8976,
      "doc__": 8977,
      "quantity": 8978,
      "?? ????": 8979,
      "13):\n": 8980,
      "current.": 8981,
      "bind": 8982,
      "0, 1.": 8983,
      "K1": 8984,
      "err_": 8985,
      "height ": 8986,
      "<SCOPE_IN>file": 8987,
      "just": 8988,
      "os.list": 8989,
      "msat_": 8990,
      "s' in ": 8991,
      "checksum": 8992,
      "Encoder": 8993,
      "havi": 8994,
      "self.assertIsInstance": 8995,
      "': True},\n": 8996,
      "mapper": 8997,
      "subscriptionId": 8998,
      "transport_": 8999,
      "Identifier": 9000,
      "Space": 9001,
      "nail": 9002,
      "': 'True', '": 9003,
      ",0 ": 9004,
      "roid": 9005,
      "inish": 9006,
      "resp = ": 9007,
      "2: ": 9008,
      "_embedding": 9009,
      "statistic": 9010,
      "127.0.0.1": 9011,
      "\", S(1": 9012,
      "For ": 9013,
      "backend.": 9014,
      "_test_args(": 9015,
      "s = set(": 9016,
      "Vo": 9017,
      "matmul": 9018,
      "wait_for": 9019,
      "CT_": 9020,
      "int, default=": 9021,
      "_state_": 9022,
      "_key = ": 9023,
      "\\w": 9024,
      "ONE_P": 9025,
      "table = ": 9026,
      "querie": 9027,
      "match.group": 9028,
      "popul": 9029,
      "\"b": 9030,
      "-NS": 9031,
      "00,\n": 9032,
      "numpy_": 9033,
      "cloud": 9034,
      "ssl/": 9035,
      "Deploy": 9036,
      "[attr": 9037,
      "al\n": 9038,
      ") ** ": 9039,
      "_proto": 9040,
      "../../": 9041,
      "shor": 9042,
      "assert _test_args(": 9043,
      ") + \"": 9044,
      "batch_size=": 9045,
      "301": 9046,
      "_pass": 9047,
      "(self) -> str:\n": 9048,
      "Microsof": 9049,
      "_i": 9050,
      "mid": 9051,
      "point.": 9052,
      "'] = self._serialize.": 9053,
      "Soft": 9054,
      "lue": 9055,
      "min ": 9056,
      "RIG": 9057,
      "_PRE": 9058,
      "Bound": 9059,
      "<SCOPE_IN>user": 9060,
      "lea": 9061,
      "t():\n": 9062,
      "value ": 9063,
      "all-": 9064,
      "\":0,\"": 9065,
      "7,7": 9066,
      "HTML": 9067,
      "torch.cat": 9068,
      "platform.": 9069,
      "implement": 9070,
      "22222222": 9071,
      "RsvpTe": 9072,
      "message_type": 9073,
      "@classmethod\n": 9074,
      "_plo": 9075,
      "Could not ": 9076,
      "neutr": 9077,
      "timeout_": 9078,
      "L, 0x": 9079,
      "Pack": 9080,
      "syntax": 9081,
      "0-9": 9082,
      "FORMAT": 9083,
      "ms.": 9084,
      "\", type=": 9085,
      "latest_": 9086,
      "X-MANAGER": 9087,
      "recipi": 9088,
      "VMWARE-NS": 9089,
      "VMWARE-NSX-MANAGER": 9090,
      "a in ": 9091,
      "self.check": 9092,
      "where(": 9093,
      "advance": 9094,
      "[^": 9095,
      "micro": 9096,
      "_dir = ": 9097,
      "metavar": 9098,
      "_schedule": 9099,
      "Access": 9100,
      "-MIB\", \"vmwNsx": 9101,
      "_ops.": 9102,
      "id=\"": 9103,
      "\\u5357": 9104,
      ", _ = ": 9105,
      "resolver": 9106,
      "NUM_": 9107,
      "resume": 9108,
      "VMWARE-NSX-MANAGER-MIB\", \"vmwNsx": 9109,
      "<SCOPE_IN>line": 9110,
      "anim": 9111,
      "geom": 9112,
      "Unable to ": 9113,
      "<SCOPE_OUT>print(": 9114,
      "ffi": 9115,
      "s_like": 9116,
      "self.assertAlmost": 9117,
      "copy.deep": 9118,
      "handler_": 9119,
      "piece": 9120,
      "<SCOPE_IN>name = ": 9121,
      "ow": 9122,
      "tests/": 9123,
      "vite": 9124,
      "Foun": 9125,
      "recur": 9126,
      "_name in ": 9127,
      "hashe": 9128,
      "_nump": 9129,
      "same ": 9130,
      "BaxA": 9131,
      "*, ": 9132,
      "1 and ": 9133,
      "r(": 9134,
      "tical": 9135,
      "perform": 9136,
      "else: ": 9137,
      "MEDI": 9138,
      "etag": 9139,
      "order.": 9140,
      "hwRsvpTe": 9141,
      "0\",\n": 9142,
      "1.00 ": 9143,
      "readline": 9144,
      "Meta:\n": 9145,
      "X.": 9146,
      "ceil": 9147,
      "FS": 9148,
      "list\n": 9149,
      "loss, ": 9150,
      "system_": 9151,
      "'\")\n": 9152,
      "into ": 9153,
      "timer": 9154,
      "user ": 9155,
      "node = ": 9156,
      "1.0\n": 9157,
      "FFFF": 9158,
      "Free": 9159,
      "_data)\n": 9160,
      "sql.": 9161,
      "cast(": 9162,
      "limit ": 9163,
      "stick": 9164,
      "_matrix": 9165,
      "rosp": 9166,
      "EXP": 9167,
      "parser.add_argument('-": 9168,
      "isco-": 9169,
      "subscribe": 9170,
      "validation_": 9171,
      "snapshot_": 9172,
      ":\")\n": 9173,
      "compar": 9174,
      "mask = ": 9175,
      "shift_": 9176,
      "eth": 9177,
      "self.check_": 9178,
      "_dict_": 9179,
      "target = ": 9180,
      ": int, ": 9181,
      "radient": 9182,
      ".h": 9183,
      "_style": 9184,
      "Coord": 9185,
      "_pay": 9186,
      "CLAS": 9187,
      "2])\n": 9188,
      "params = ": 9189,
      "mean_": 9190,
      " = _get_": 9191,
      "\\xf1": 9192,
      "<SCOPE_IN>print \"": 9193,
      "Content-Type": 9194,
      "-c": 9195,
      "Rout": 9196,
      "gnu": 9197,
      "trans, ": 9198,
      "analysi": 9199,
      "Hello": 9200,
      "body.": 9201,
      "uint32": 9202,
      "country": 9203,
      "ARM": 9204,
      "0.5)\n": 9205,
      "self.__class__": 9206,
      "_password": 9207,
      "gram_": 9208,
      "primitive": 9209,
      "md5": 9210,
      "did": 9211,
      ") >= ": 9212,
      "_clean": 9213,
      "main(": 9214,
      "long_description": 9215,
      "absolute_": 9216,
      "0: ": 9217,
      "_def": 9218,
      "used ": 9219,
      "AttributeError:\n": 9220,
      "hub": 9221,
      "lead": 9222,
      "('a": 9223,
      "MESS": 9224,
      "_const": 9225,
      "(context, ": 9226,
      "), (33": 9227,
      "codec": 9228,
      "ACTI": 9229,
      "canv": 9230,
      "body)\n": 9231,
      "s[2].": 9232,
      "_speci": 9233,
      "Expr": 9234,
      "transport.": 9235,
[...]
